{
"DA00": 0,
"DA000": 1,
"DA001": 2,
"DA009": 3,
"DA01": 4,
"DA010": 5,
"DA011": 6,
"DA012": 7,
"DA013": 8,
"DA014": 9,
"DA02": 10,
"DA020": 11,
"DA021": 12,
"DA022": 13,
"DA028": 14,
"DA029": 15,
"DA03": 16,
"DA030": 17,
"DA031": 18,
"DA032": 19,
"DA033": 20,
"DA038": 21,
"DA039": 22,
"DA04": 23,
"DA040": 24,
"DA041": 25,
"DA042": 26,
"DA043": 27,
"DA044": 28,
"DA045": 29,
"DA046": 30,
"DA047": 31,
"DA048": 32,
"DA049": 33,
"DA05": 34,
"DA050": 35,
"DA051": 36,
"DA052": 37,
"DA053": 38,
"DA054": 39,
"DA058": 40,
"DA059": 41,
"DA06": 42,
"DA060": 43,
"DA061": 44,
"DA062": 45,
"DA063": 46,
"DA063A": 47,
"DA064": 48,
"DA065": 49,
"DA066": 50,
"DA067": 51,
"DA068": 52,
"DA068A": 53,
"DA069": 54,
"DA07": 55,
"DA070": 56,
"DA071": 57,
"DA072": 58,
"DA073": 59,
"DA078": 60,
"DA078A": 61,
"DA078C": 62,
"DA078D": 63,
"DA079": 64,
"DA08": 65,
"DA080": 66,
"DA081": 67,
"DA082": 68,
"DA083": 69,
"DA083A": 70,
"DA084": 71,
"DA085": 72,
"DA09": 73,
"DA090": 74,
"DA099": 75,
"DA15": 76,
"DA150": 77,
"DA151": 78,
"DA152": 79,
"DA153": 80,
"DA154": 81,
"DA155": 82,
"DA156": 83,
"DA157": 84,
"DA158": 85,
"DA158A": 86,
"DA158B": 87,
"DA158C": 88,
"DA159": 89,
"DA16": 90,
"DA160": 91,
"DA161": 92,
"DA162": 93,
"DA162A": 94,
"DA162B": 95,
"DA162C": 96,
"DA163": 97,
"DA164": 98,
"DA165": 99,
"DA167": 100,
"DA168": 101,
"DA168A": 102,
"DA168B": 103,
"DA168C": 104,
"DA169": 105,
"DA17": 106,
"DA170": 107,
"DA171": 108,
"DA178": 109,
"DA179": 110,
"DA18": 111,
"DA180": 112,
"DA181": 113,
"DA182": 114,
"DA183": 115,
"DA183F": 116,
"DA183G": 117,
"DA183H": 118,
"DA184": 119,
"DA184A": 120,
"DA184B": 121,
"DA184C": 122,
"DA184D": 123,
"DA184F": 124,
"DA184G": 125,
"DA184H": 126,
"DA184I": 127,
"DA184J": 128,
"DA185": 129,
"DA186": 130,
"DA187": 131,
"DA187A": 132,
"DA188": 133,
"DA19": 134,
"DA190": 135,
"DA191": 136,
"DA192": 137,
"DA198": 138,
"DA199": 139,
"DA20": 140,
"DA200": 141,
"DA201": 142,
"DA202": 143,
"DA203": 144,
"DA207": 145,
"DA208": 146,
"DA209": 147,
"DA21": 148,
"DA210": 149,
"DA211": 150,
"DA212": 151,
"DA213": 152,
"DA217": 153,
"DA218": 154,
"DA219": 155,
"DA22": 156,
"DA220": 157,
"DA221": 158,
"DA222": 159,
"DA227": 160,
"DA228": 161,
"DA229": 162,
"DA23": 163,
"DA230": 164,
"DA231": 165,
"DA232": 166,
"DA233": 167,
"DA238": 168,
"DA239": 169,
"DA24": 170,
"DA240": 171,
"DA241": 172,
"DA242": 173,
"DA243": 174,
"DA244": 175,
"DA25": 176,
"DA250": 177,
"DA250A": 178,
"DA251": 179,
"DA259": 180,
"DA26": 181,
"DA260": 182,
"DA267": 183,
"DA268": 184,
"DA269": 185,
"DA27": 186,
"DA270": 187,
"DA278": 188,
"DA279": 189,
"DA28": 190,
"DA280": 191,
"DA281": 192,
"DA282": 193,
"DA282B": 194,
"DA288": 195,
"DA289": 196,
"DA30": 197,
"DA300": 198,
"DA301": 199,
"DA302": 200,
"DA303": 201,
"DA304": 202,
"DA305": 203,
"DA308": 204,
"DA309": 205,
"DA31": 206,
"DA310": 207,
"DA310A": 208,
"DA310B": 209,
"DA310C": 210,
"DA311": 211,
"DA311A": 212,
"DA311B": 213,
"DA318": 214,
"DA319": 215,
"DA32": 216,
"DA320": 217,
"DA321": 218,
"DA327": 219,
"DA328": 220,
"DA328A": 221,
"DA329": 222,
"DA33": 223,
"DA339": 224,
"DA34": 225,
"DA349": 226,
"DA35": 227,
"DA359": 228,
"DA36": 229,
"DA360": 230,
"DA360A": 231,
"DA361": 232,
"DA362": 233,
"DA362A": 234,
"DA363": 235,
"DA368": 236,
"DA369": 237,
"DA37": 238,
"DA370": 239,
"DA371": 240,
"DA378": 241,
"DA379": 242,
"DA38": 243,
"DA389": 244,
"DA39": 245,
"DA390": 246,
"DA391": 247,
"DA392": 248,
"DA392A": 249,
"DA393": 250,
"DA394": 251,
"DA395": 252,
"DA398": 253,
"DA399": 254,
"DA40": 255,
"DA400": 256,
"DA401": 257,
"DA402": 258,
"DA403": 259,
"DA408": 260,
"DA409": 261,
"DA41": 262,
"DA410": 263,
"DA411": 264,
"DA411A": 265,
"DA412": 266,
"DA413": 267,
"DA414": 268,
"DA415": 269,
"DA415A": 270,
"DA418": 271,
"DA419": 272,
"DA419B": 273,
"DA419C": 274,
"DA42": 275,
"DA420": 276,
"DA421": 277,
"DA422": 278,
"DA427": 279,
"DA428": 280,
"DA429": 281,
"DA43": 282,
"DA430": 283,
"DA431": 284,
"DA438": 285,
"DA439": 286,
"DA44": 287,
"DA440": 288,
"DA441": 289,
"DA448": 290,
"DA449": 291,
"DA46": 292,
"DA469": 293,
"DA48": 294,
"DA480": 295,
"DA481": 296,
"DA482": 297,
"DA483": 298,
"DA484": 299,
"DA484A": 300,
"DA488": 301,
"DA488A": 302,
"DA49": 303,
"DA490": 304,
"DA491": 305,
"DA492": 306,
"DA493": 307,
"DA498": 308,
"DA499": 309,
"DA499A": 310,
"DA50": 311,
"DA500": 312,
"DA501": 313,
"DA502": 314,
"DA503": 315,
"DA504": 316,
"DA505": 317,
"DA505A": 318,
"DA505B": 319,
"DA505C": 320,
"DA506": 321,
"DA507": 322,
"DA509": 323,
"DA51": 324,
"DA510": 325,
"DA511": 326,
"DA512": 327,
"DA513": 328,
"DA513A": 329,
"DA513F": 330,
"DA514": 331,
"DA514A": 332,
"DA515": 333,
"DA519": 334,
"DA52": 335,
"DA520": 336,
"DA521": 337,
"DA521D": 338,
"DA522": 339,
"DA523": 340,
"DA527": 341,
"DA527A": 342,
"DA527C": 343,
"DA528": 344,
"DA529": 345,
"DA53": 346,
"DA530": 347,
"DA539": 348,
"DA54": 349,
"DA540": 350,
"DA540A": 351,
"DA540B": 352,
"DA540D": 353,
"DA540E": 354,
"DA540F": 355,
"DA541": 356,
"DA541A": 357,
"DA541B": 358,
"DA542": 359,
"DA543": 360,
"DA543A": 361,
"DA544": 362,
"DA545": 363,
"DA546": 364,
"DA548": 365,
"DA548B": 366,
"DA548G": 367,
"DA549": 368,
"DA55": 369,
"DA559": 370,
"DA56": 371,
"DA560": 372,
"DA560A": 373,
"DA560C": 374,
"DA560D": 375,
"DA560E": 376,
"DA561": 377,
"DA562": 378,
"DA563": 379,
"DA564": 380,
"DA568": 381,
"DA57": 382,
"DA579": 383,
"DA58": 384,
"DA589": 385,
"DA59": 386,
"DA590": 387,
"DA590A": 388,
"DA590C": 389,
"DA598": 390,
"DA599": 391,
"DA60": 392,
"DA600": 393,
"DA601": 394,
"DA601A": 395,
"DA601B": 396,
"DA601C": 397,
"DA609": 398,
"DA63": 399,
"DA630": 400,
"DA630B": 401,
"DA630C": 402,
"DA630D": 403,
"DA630E": 404,
"DA638": 405,
"DA638A": 406,
"DA64": 407,
"DA649": 408,
"DA65": 409,
"DA659": 410,
"DA66": 411,
"DA660": 412,
"DA661": 413,
"DA662": 414,
"DA663": 415,
"DA664": 416,
"DA665": 417,
"DA666": 418,
"DA667": 419,
"DA668": 420,
"DA669": 421,
"DA67": 422,
"DA670": 423,
"DA671": 424,
"DA672": 425,
"DA673": 426,
"DA679": 427,
"DA68": 428,
"DA680": 429,
"DA681": 430,
"DA689": 431,
"DA69": 432,
"DA690": 433,
"DA690A": 434,
"DA690B": 435,
"DA690C": 436,
"DA691": 437,
"DA691A": 438,
"DA691B": 439,
"DA691C": 440,
"DA691E": 441,
"DA691F": 442,
"DA691G": 443,
"DA692": 444,
"DA692A": 445,
"DA692D": 446,
"DA692F": 447,
"DA698": 448,
"DA699": 449,
"DA70": 450,
"DA709": 451,
"DA71": 452,
"DA710": 453,
"DA711": 454,
"DA719": 455,
"DA74": 456,
"DA740": 457,
"DA748": 458,
"DA749": 459,
"DA75": 460,
"DA750": 461,
"DA751": 462,
"DA752": 463,
"DA753": 464,
"DA759": 465,
"DA77": 466,
"DA770": 467,
"DA771": 468,
"DA772": 469,
"DA773": 470,
"DA778": 471,
"DA779": 472,
"DA78": 473,
"DA789": 474,
"DA79": 475,
"DA790": 476,
"DA791": 477,
"DA798": 478,
"DA798A": 479,
"DA798B": 480,
"DA799": 481,
"DA80": 482,
"DA800": 483,
"DA801": 484,
"DA802": 485,
"DA803": 486,
"DA804": 487,
"DA809": 488,
"DA81": 489,
"DA810": 490,
"DA811": 491,
"DA812": 492,
"DA818": 493,
"DA818A": 494,
"DA818B": 495,
"DA819": 496,
"DA819A": 497,
"DA82": 498,
"DA820": 499,
"DA821": 500,
"DA829": 501,
"DA83": 502,
"DA830": 503,
"DA831": 504,
"DA832": 505,
"DA833": 506,
"DA834": 507,
"DA835": 508,
"DA836": 509,
"DA838": 510,
"DA839": 511,
"DA84": 512,
"DA840": 513,
"DA841": 514,
"DA848": 515,
"DA849": 516,
"DA85": 517,
"DA850": 518,
"DA851": 519,
"DA852": 520,
"DA858": 521,
"DA858A": 522,
"DA86": 523,
"DA869": 524,
"DA87": 525,
"DA870": 526,
"DA870A": 527,
"DA870B": 528,
"DA871": 529,
"DA872": 530,
"DA872A": 531,
"DA878": 532,
"DA879": 533,
"DA88": 534,
"DA880": 535,
"DA881": 536,
"DA888": 537,
"DA89": 538,
"DA899": 539,
"DA92": 540,
"DA920": 541,
"DA921": 542,
"DA922": 543,
"DA923": 544,
"DA924": 545,
"DA925": 546,
"DA928": 547,
"DA929": 548,
"DA93": 549,
"DA930": 550,
"DA931": 551,
"DA932": 552,
"DA938": 553,
"DA94": 554,
"DA949": 555,
"DA95": 556,
"DA950": 557,
"DA951": 558,
"DA959": 559,
"DA96": 560,
"DA960": 561,
"DA961": 562,
"DA962": 563,
"DA968": 564,
"DA969": 565,
"DA97": 566,
"DA970": 567,
"DA971": 568,
"DA972": 569,
"DA979": 570,
"DA98": 571,
"DA980": 572,
"DA981": 573,
"DA982": 574,
"DA983": 575,
"DA984": 576,
"DA985": 577,
"DA985A": 578,
"DA985B": 579,
"DA985C": 580,
"DA988": 581,
"DA99": 582,
"DA999": 583,
"DB00": 584,
"DB000": 585,
"DB001": 586,
"DB001A": 587,
"DB001B": 588,
"DB001C": 589,
"DB002": 590,
"DB002A": 591,
"DB002B": 592,
"DB002C": 593,
"DB003": 594,
"DB004": 595,
"DB004A": 596,
"DB005": 597,
"DB007": 598,
"DB008": 599,
"DB009": 600,
"DB01": 601,
"DB010": 602,
"DB011": 603,
"DB011A": 604,
"DB012": 605,
"DB018": 606,
"DB019": 607,
"DB02": 608,
"DB020": 609,
"DB020A": 610,
"DB021": 611,
"DB022": 612,
"DB023": 613,
"DB027": 614,
"DB028": 615,
"DB029": 616,
"DB03": 617,
"DB039": 618,
"DB04": 619,
"DB049": 620,
"DB05": 621,
"DB050": 622,
"DB051": 623,
"DB052": 624,
"DB053": 625,
"DB054": 626,
"DB058": 627,
"DB059": 628,
"DB06": 629,
"DB060": 630,
"DB068": 631,
"DB069": 632,
"DB07": 633,
"DB079": 634,
"DB079A": 635,
"DB079C": 636,
"DB079D": 637,
"DB08": 638,
"DB080": 639,
"DB080A": 640,
"DB080B": 641,
"DB081": 642,
"DB082": 643,
"DB083": 644,
"DB084": 645,
"DB085": 646,
"DB088": 647,
"DB088A": 648,
"DB088B": 649,
"DB09": 650,
"DB099": 651,
"DB099A": 652,
"DB15": 653,
"DB150": 654,
"DB159": 655,
"DB159A": 656,
"DB16": 657,
"DB160": 658,
"DB161": 659,
"DB162": 660,
"DB169": 661,
"DB169A": 662,
"DB17": 663,
"DB170": 664,
"DB171": 665,
"DB172": 666,
"DB178": 667,
"DB179": 668,
"DB18": 669,
"DB180": 670,
"DB181": 671,
"DB182": 672,
"DB188": 673,
"DB189": 674,
"DB19": 675,
"DB190": 676,
"DB199": 677,
"DB20": 678,
"DB200": 679,
"DB200A": 680,
"DB201": 681,
"DB202": 682,
"DB203": 683,
"DB204": 684,
"DB205": 685,
"DB206": 686,
"DB207": 687,
"DB208": 688,
"DB209": 689,
"DB22": 690,
"DB220": 691,
"DB220A": 692,
"DB221": 693,
"DB222": 694,
"DB227": 695,
"DB23": 696,
"DB230": 697,
"DB231": 698,
"DB232": 699,
"DB238": 700,
"DB238A": 701,
"DB24": 702,
"DB249": 703,
"DB25": 704,
"DB250": 705,
"DB251": 706,
"DB252": 707,
"DB258": 708,
"DB259": 709,
"DB26": 710,
"DB260": 711,
"DB261": 712,
"DB262": 713,
"DB263": 714,
"DB268": 715,
"DB269": 716,
"DB27": 717,
"DB270": 718,
"DB271": 719,
"DB278": 720,
"DB279": 721,
"DB30": 722,
"DB300": 723,
"DB301": 724,
"DB301A": 725,
"DB301B": 726,
"DB302": 727,
"DB303": 728,
"DB303A": 729,
"DB303B": 730,
"DB303C": 731,
"DB308": 732,
"DB308A": 733,
"DB309": 734,
"DB33": 735,
"DB330": 736,
"DB331": 737,
"DB332": 738,
"DB333": 739,
"DB334": 740,
"DB338": 741,
"DB34": 742,
"DB340": 743,
"DB341": 744,
"DB341A": 745,
"DB341B": 746,
"DB342": 747,
"DB342A": 748,
"DB343": 749,
"DB344": 750,
"DB348": 751,
"DB349": 752,
"DB349A": 753,
"DB35": 754,
"DB350": 755,
"DB350A": 756,
"DB350B": 757,
"DB350C": 758,
"DB351": 759,
"DB352": 760,
"DB353": 761,
"DB354": 762,
"DB354A": 763,
"DB355": 764,
"DB356": 765,
"DB356B": 766,
"DB358": 767,
"DB358A": 768,
"DB358B": 769,
"DB359": 770,
"DB36": 771,
"DB360": 772,
"DB361": 773,
"DB362": 774,
"DB363": 775,
"DB368": 776,
"DB368A": 777,
"DB369": 778,
"DB37": 779,
"DB370": 780,
"DB370A": 781,
"DB371": 782,
"DB372": 783,
"DB372A": 784,
"DB372B": 785,
"DB373": 786,
"DB373A": 787,
"DB373B": 788,
"DB373C": 789,
"DB374": 790,
"DB375": 791,
"DB376": 792,
"DB377": 793,
"DB378": 794,
"DB378A": 795,
"DB378B": 796,
"DB378C": 797,
"DB379": 798,
"DB38": 799,
"DB380": 800,
"DB381": 801,
"DB382": 802,
"DB383": 803,
"DB384": 804,
"DB387": 805,
"DB388": 806,
"DB389": 807,
"DB39": 808,
"DB390": 809,
"DB391": 810,
"DB392": 811,
"DB393": 812,
"DB394": 813,
"DB395": 814,
"DB399": 815,
"DB40": 816,
"DB400": 817,
"DB401": 818,
"DB402": 819,
"DB403": 820,
"DB407": 821,
"DB408": 822,
"DB409": 823,
"DB41": 824,
"DB410": 825,
"DB411": 826,
"DB418": 827,
"DB419": 828,
"DB42": 829,
"DB420": 830,
"DB421": 831,
"DB427": 832,
"DB428": 833,
"DB429": 834,
"DB43": 835,
"DB430": 836,
"DB431": 837,
"DB432": 838,
"DB438": 839,
"DB439": 840,
"DB44": 841,
"DB440": 842,
"DB441": 843,
"DB441A": 844,
"DB441B": 845,
"DB442": 846,
"DB447": 847,
"DB448": 848,
"DB448A": 849,
"DB448B": 850,
"DB449": 851,
"DB45": 852,
"DB450": 853,
"DB451": 854,
"DB451B": 855,
"DB452": 856,
"DB453": 857,
"DB457": 858,
"DB458": 859,
"DB459": 860,
"DB46": 861,
"DB460": 862,
"DB461": 863,
"DB462": 864,
"DB463": 865,
"DB463A": 866,
"DB464": 867,
"DB465": 868,
"DB468": 869,
"DB468A": 870,
"DB469": 871,
"DB469B": 872,
"DB47": 873,
"DB470": 874,
"DB471": 875,
"DB479": 876,
"DB48": 877,
"DB480": 878,
"DB481": 879,
"DB482": 880,
"DB483": 881,
"DB484": 882,
"DB485": 883,
"DB487": 884,
"DB488": 885,
"DB49": 886,
"DB499": 887,
"DB499A": 888,
"DB50": 889,
"DB500": 890,
"DB500A": 891,
"DB508": 892,
"DB509": 893,
"DB51": 894,
"DB510": 895,
"DB518": 896,
"DB519": 897,
"DB52": 898,
"DB520": 899,
"DB528": 900,
"DB529": 901,
"DB53": 902,
"DB530": 903,
"DB531": 904,
"DB538": 905,
"DB538A": 906,
"DB54": 907,
"DB549": 908,
"DB55": 909,
"DB550": 910,
"DB551": 911,
"DB552": 912,
"DB559": 913,
"DB56": 914,
"DB560": 915,
"DB561": 916,
"DB569": 917,
"DB57": 918,
"DB570": 919,
"DB571": 920,
"DB572": 921,
"DB572A": 922,
"DB573": 923,
"DB574": 924,
"DB575": 925,
"DB579": 926,
"DB58": 927,
"DB580": 928,
"DB581": 929,
"DB582": 930,
"DB583": 931,
"DB588": 932,
"DB589": 933,
"DB60": 934,
"DB600": 935,
"DB600A": 936,
"DB601": 937,
"DB602": 938,
"DB608": 939,
"DB608A": 940,
"DB64": 941,
"DB649": 942,
"DB65": 943,
"DB650": 944,
"DB651": 945,
"DB652": 946,
"DB653": 947,
"DB658": 948,
"DB659": 949,
"DB66": 950,
"DB660": 951,
"DB661": 952,
"DB662": 953,
"DB663": 954,
"DB664": 955,
"DB665": 956,
"DB668": 957,
"DB669": 958,
"DB67": 959,
"DB670": 960,
"DB671": 961,
"DB672": 962,
"DB673": 963,
"DB674": 964,
"DB675": 965,
"DB676": 966,
"DB677": 967,
"DB678": 968,
"DB679": 969,
"DB68": 970,
"DB680": 971,
"DB681": 972,
"DB689": 973,
"DB69": 974,
"DB690": 975,
"DB691": 976,
"DB698": 977,
"DB699": 978,
"DB70": 979,
"DB700": 980,
"DB701": 981,
"DB71": 982,
"DB710": 983,
"DB711": 984,
"DB718": 985,
"DB719": 986,
"DB72": 987,
"DB729": 988,
"DB73": 989,
"DB739": 990,
"DB74": 991,
"DB740": 992,
"DB741": 993,
"DB742": 994,
"DB743": 995,
"DB744": 996,
"DB748": 997,
"DB748B": 998,
"DB749": 999,
"DB75": 1000,
"DB759": 1001,
"DB76": 1002,
"DB760": 1003,
"DB761": 1004,
"DB768": 1005,
"DB769": 1006,
"DB769A": 1007,
"DB77": 1008,
"DB770": 1009,
"DB778": 1010,
"DB779": 1011,
"DB78": 1012,
"DB780": 1013,
"DB781": 1014,
"DB787": 1015,
"DB789": 1016,
"DB79": 1017,
"DB799": 1018,
"DB80": 1019,
"DB809": 1020,
"DB81": 1021,
"DB810": 1022,
"DB811": 1023,
"DB812": 1024,
"DB813": 1025,
"DB814": 1026,
"DB818": 1027,
"DB82": 1028,
"DB820": 1029,
"DB829": 1030,
"DB83": 1031,
"DB830": 1032,
"DB830A": 1033,
"DB831": 1034,
"DB832": 1035,
"DB833": 1036,
"DB834": 1037,
"DB838": 1038,
"DB839": 1039,
"DB85": 1040,
"DB850": 1041,
"DB851": 1042,
"DB852": 1043,
"DB853": 1044,
"DB854": 1045,
"DB86": 1046,
"DB869": 1047,
"DB869A": 1048,
"DB869B": 1049,
"DB87": 1050,
"DB870": 1051,
"DB871": 1052,
"DB872": 1053,
"DB873": 1054,
"DB874": 1055,
"DB878": 1056,
"DB879": 1057,
"DB88": 1058,
"DB880": 1059,
"DB881": 1060,
"DB882": 1061,
"DB883": 1062,
"DB888": 1063,
"DB888A": 1064,
"DB888B": 1065,
"DB888C": 1066,
"DB888D": 1067,
"DB889": 1068,
"DB89": 1069,
"DB899": 1070,
"DB899A": 1071,
"DB90": 1072,
"DB900": 1073,
"DB901": 1074,
"DB902": 1075,
"DB908": 1076,
"DB909": 1077,
"DB91": 1078,
"DB919": 1079,
"DB92": 1080,
"DB929": 1081,
"DB94": 1082,
"DB940": 1083,
"DB941": 1084,
"DB942": 1085,
"DB948": 1086,
"DB948A": 1087,
"DB949": 1088,
"DB95": 1089,
"DB950": 1090,
"DB951": 1091,
"DB952": 1092,
"DB953": 1093,
"DB954": 1094,
"DB955": 1095,
"DB956": 1096,
"DB956A": 1097,
"DB957": 1098,
"DB958": 1099,
"DB96": 1100,
"DB960": 1101,
"DB961": 1102,
"DB962": 1103,
"DB963": 1104,
"DB964": 1105,
"DB965": 1106,
"DB966": 1107,
"DB967": 1108,
"DB968": 1109,
"DB97": 1110,
"DB970": 1111,
"DB971": 1112,
"DB972": 1113,
"DB972A": 1114,
"DB972B": 1115,
"DB972B1": 1116,
"DB973": 1117,
"DB974": 1118,
"DB975": 1119,
"DB976": 1120,
"DB977": 1121,
"DB978": 1122,
"DB98": 1123,
"DB980": 1124,
"DB981": 1125,
"DB99": 1126,
"DB999": 1127,
"DC00": 1128,
"DC000": 1129,
"DC001": 1130,
"DC002": 1131,
"DC003": 1132,
"DC004": 1133,
"DC005": 1134,
"DC006": 1135,
"DC008": 1136,
"DC009": 1137,
"DC01": 1138,
"DC019": 1139,
"DC02": 1140,
"DC020": 1141,
"DC021": 1142,
"DC021A": 1143,
"DC022": 1144,
"DC022A": 1145,
"DC023": 1146,
"DC024": 1147,
"DC028": 1148,
"DC029": 1149,
"DC03": 1150,
"DC030": 1151,
"DC031": 1152,
"DC039": 1153,
"DC04": 1154,
"DC040": 1155,
"DC041": 1156,
"DC048": 1157,
"DC049": 1158,
"DC05": 1159,
"DC050": 1160,
"DC051": 1161,
"DC052": 1162,
"DC058": 1163,
"DC059": 1164,
"DC06": 1165,
"DC060": 1166,
"DC061": 1167,
"DC062": 1168,
"DC068": 1169,
"DC069": 1170,
"DC07": 1171,
"DC079": 1172,
"DC08": 1173,
"DC080": 1174,
"DC081": 1175,
"DC088": 1176,
"DC089": 1177,
"DC09": 1178,
"DC090": 1179,
"DC091": 1180,
"DC091A": 1181,
"DC091B": 1182,
"DC092": 1183,
"DC098": 1184,
"DC099": 1185,
"DC10": 1186,
"DC100": 1187,
"DC101": 1188,
"DC102": 1189,
"DC103": 1190,
"DC104": 1191,
"DC104A": 1192,
"DC104B": 1193,
"DC108": 1194,
"DC109": 1195,
"DC11": 1196,
"DC110": 1197,
"DC111": 1198,
"DC112": 1199,
"DC113": 1200,
"DC118": 1201,
"DC119": 1202,
"DC12": 1203,
"DC129": 1204,
"DC13": 1205,
"DC130": 1206,
"DC131": 1207,
"DC132": 1208,
"DC138": 1209,
"DC139": 1210,
"DC14": 1211,
"DC140": 1212,
"DC141": 1213,
"DC142": 1214,
"DC148": 1215,
"DC15": 1216,
"DC153": 1217,
"DC154": 1218,
"DC155": 1219,
"DC158": 1220,
"DC159": 1221,
"DC16": 1222,
"DC160": 1223,
"DC161": 1224,
"DC162": 1225,
"DC163": 1226,
"DC164": 1227,
"DC165": 1228,
"DC166": 1229,
"DC168": 1230,
"DC169": 1231,
"DC17": 1232,
"DC170": 1233,
"DC171": 1234,
"DC172": 1235,
"DC173": 1236,
"DC178": 1237,
"DC179": 1238,
"DC18": 1239,
"DC180": 1240,
"DC180A": 1241,
"DC181": 1242,
"DC182": 1243,
"DC183": 1244,
"DC184": 1245,
"DC185": 1246,
"DC186": 1247,
"DC187": 1248,
"DC188": 1249,
"DC188A": 1250,
"DC189": 1251,
"DC20": 1252,
"DC209": 1253,
"DC21": 1254,
"DC210": 1255,
"DC211": 1256,
"DC212": 1257,
"DC218": 1258,
"DC22": 1259,
"DC220": 1260,
"DC221": 1261,
"DC221A": 1262,
"DC222": 1263,
"DC223": 1264,
"DC224": 1265,
"DC227": 1266,
"DC229": 1267,
"DC23": 1268,
"DC239": 1269,
"DC24": 1270,
"DC240": 1271,
"DC240A": 1272,
"DC240B": 1273,
"DC240C": 1274,
"DC240D": 1275,
"DC240E": 1276,
"DC241": 1277,
"DC248": 1278,
"DC249": 1279,
"DC25": 1280,
"DC250": 1281,
"DC251": 1282,
"DC252": 1283,
"DC253": 1284,
"DC254": 1285,
"DC257": 1286,
"DC258": 1287,
"DC259": 1288,
"DC26": 1289,
"DC260": 1290,
"DC261": 1291,
"DC268": 1292,
"DC269": 1293,
"DC30": 1294,
"DC300": 1295,
"DC300A": 1296,
"DC300B": 1297,
"DC300C": 1298,
"DC301": 1299,
"DC301A": 1300,
"DC301B": 1301,
"DC31": 1302,
"DC310": 1303,
"DC311": 1304,
"DC312": 1305,
"DC313": 1306,
"DC318": 1307,
"DC319": 1308,
"DC32": 1309,
"DC320": 1310,
"DC320A": 1311,
"DC321": 1312,
"DC321A": 1313,
"DC321B": 1314,
"DC321C": 1315,
"DC321D": 1316,
"DC322": 1317,
"DC323": 1318,
"DC328": 1319,
"DC329": 1320,
"DC33": 1321,
"DC339": 1322,
"DC34": 1323,
"DC340": 1324,
"DC340A": 1325,
"DC340B": 1326,
"DC341": 1327,
"DC342": 1328,
"DC343": 1329,
"DC348": 1330,
"DC349": 1331,
"DC37": 1332,
"DC379": 1333,
"DC38": 1334,
"DC380": 1335,
"DC380A": 1336,
"DC381": 1337,
"DC382": 1338,
"DC383": 1339,
"DC384": 1340,
"DC388": 1341,
"DC39": 1342,
"DC390": 1343,
"DC398": 1344,
"DC399": 1345,
"DC40": 1346,
"DC400": 1347,
"DC400A": 1348,
"DC400B": 1349,
"DC400C": 1350,
"DC400D": 1351,
"DC401": 1352,
"DC401A": 1353,
"DC401B": 1354,
"DC402": 1355,
"DC402A": 1356,
"DC402B": 1357,
"DC403": 1358,
"DC403A": 1359,
"DC403B": 1360,
"DC408": 1361,
"DC409": 1362,
"DC41": 1363,
"DC410": 1364,
"DC410A": 1365,
"DC410B": 1366,
"DC410C": 1367,
"DC410D": 1368,
"DC410E": 1369,
"DC410F": 1370,
"DC410G": 1371,
"DC411": 1372,
"DC411A": 1373,
"DC412": 1374,
"DC412A": 1375,
"DC412B": 1376,
"DC413": 1377,
"DC413A": 1378,
"DC413B": 1379,
"DC413C": 1380,
"DC413D": 1381,
"DC413E": 1382,
"DC413F": 1383,
"DC414": 1384,
"DC414A": 1385,
"DC414B": 1386,
"DC414C": 1387,
"DC414D": 1388,
"DC414E": 1389,
"DC414F": 1390,
"DC418": 1391,
"DC419": 1392,
"DC419A": 1393,
"DC419B": 1394,
"DC43": 1395,
"DC430": 1396,
"DC431": 1397,
"DC431A": 1398,
"DC431B": 1399,
"DC432": 1400,
"DC432A": 1401,
"DC432B": 1402,
"DC433": 1403,
"DC434": 1404,
"DC434A": 1405,
"DC434B": 1406,
"DC435": 1407,
"DC435A": 1408,
"DC435B": 1409,
"DC435C": 1410,
"DC435L": 1411,
"DC436": 1412,
"DC436A": 1413,
"DC436B": 1414,
"DC436C": 1415,
"DC437": 1416,
"DC437A": 1417,
"DC437B": 1418,
"DC437C": 1419,
"DC438": 1420,
"DC439": 1421,
"DC44": 1422,
"DC440": 1423,
"DC441": 1424,
"DC441A": 1425,
"DC442": 1426,
"DC442A": 1427,
"DC442B": 1428,
"DC443": 1429,
"DC444": 1430,
"DC444A": 1431,
"DC444B": 1432,
"DC445": 1433,
"DC445A": 1434,
"DC445B": 1435,
"DC445C": 1436,
"DC446": 1437,
"DC446A": 1438,
"DC446B": 1439,
"DC446C": 1440,
"DC447": 1441,
"DC447A": 1442,
"DC447B": 1443,
"DC447C": 1444,
"DC448": 1445,
"DC449": 1446,
"DC45": 1447,
"DC450": 1448,
"DC451": 1449,
"DC452": 1450,
"DC457": 1451,
"DC459": 1452,
"DC46": 1453,
"DC460": 1454,
"DC461": 1455,
"DC462": 1456,
"DC463": 1457,
"DC467": 1458,
"DC468": 1459,
"DC469": 1460,
"DC47": 1461,
"DC470": 1462,
"DC470A": 1463,
"DC470B": 1464,
"DC470C": 1465,
"DC470D": 1466,
"DC470E": 1467,
"DC470F": 1468,
"DC471": 1469,
"DC471A": 1470,
"DC471B": 1471,
"DC471C": 1472,
"DC471D": 1473,
"DC472": 1474,
"DC472A": 1475,
"DC472B": 1476,
"DC472C": 1477,
"DC472D": 1478,
"DC473": 1479,
"DC473A": 1480,
"DC473B": 1481,
"DC474": 1482,
"DC474A": 1483,
"DC474B": 1484,
"DC475": 1485,
"DC475A": 1486,
"DC475B": 1487,
"DC476": 1488,
"DC476A": 1489,
"DC476B": 1490,
"DC478": 1491,
"DC478A": 1492,
"DC478B": 1493,
"DC479": 1494,
"DC479A": 1495,
"DC479B": 1496,
"DC48": 1497,
"DC480": 1498,
"DC481": 1499,
"DC481A": 1500,
"DC481B": 1501,
"DC481C": 1502,
"DC482": 1503,
"DC488": 1504,
"DC49": 1505,
"DC490": 1506,
"DC490A": 1507,
"DC490B": 1508,
"DC490C": 1509,
"DC491": 1510,
"DC491A": 1511,
"DC491B": 1512,
"DC492": 1513,
"DC492A": 1514,
"DC492B": 1515,
"DC493": 1516,
"DC493A": 1517,
"DC493B": 1518,
"DC494": 1519,
"DC495": 1520,
"DC495A": 1521,
"DC496": 1522,
"DC498": 1523,
"DC499": 1524,
"DC50": 1525,
"DC500": 1526,
"DC500A": 1527,
"DC500B": 1528,
"DC501": 1529,
"DC502": 1530,
"DC503": 1531,
"DC504": 1532,
"DC505": 1533,
"DC506": 1534,
"DC508": 1535,
"DC509": 1536,
"DC51": 1537,
"DC510": 1538,
"DC510A": 1539,
"DC511": 1540,
"DC512": 1541,
"DC518": 1542,
"DC519": 1543,
"DC52": 1544,
"DC529": 1545,
"DC53": 1546,
"DC539": 1547,
"DC54": 1548,
"DC549": 1549,
"DC55": 1550,
"DC559": 1551,
"DC56": 1552,
"DC569": 1553,
"DC569A": 1554,
"DC57": 1555,
"DC570": 1556,
"DC571": 1557,
"DC572": 1558,
"DC573": 1559,
"DC574": 1560,
"DC577": 1561,
"DC578": 1562,
"DC579": 1563,
"DC58": 1564,
"DC589": 1565,
"DC589A": 1566,
"DC589B": 1567,
"DC60": 1568,
"DC600": 1569,
"DC601": 1570,
"DC602": 1571,
"DC608": 1572,
"DC609": 1573,
"DC61": 1574,
"DC619": 1575,
"DC619Y": 1576,
"DC619Z": 1577,
"DC62": 1578,
"DC620": 1579,
"DC621": 1580,
"DC629": 1581,
"DC629A": 1582,
"DC63": 1583,
"DC630": 1584,
"DC631": 1585,
"DC632": 1586,
"DC637": 1587,
"DC638": 1588,
"DC639": 1589,
"DC64": 1590,
"DC649": 1591,
"DC65": 1592,
"DC659": 1593,
"DC66": 1594,
"DC669": 1595,
"DC67": 1596,
"DC677": 1597,
"DC679": 1598,
"DC68": 1599,
"DC680": 1600,
"DC681": 1601,
"DC688": 1602,
"DC689": 1603,
"DC69": 1604,
"DC690": 1605,
"DC691": 1606,
"DC692": 1607,
"DC692A": 1608,
"DC693": 1609,
"DC694": 1610,
"DC695": 1611,
"DC695A": 1612,
"DC695B": 1613,
"DC696": 1614,
"DC698": 1615,
"DC699": 1616,
"DC699A": 1617,
"DC70": 1618,
"DC700": 1619,
"DC701": 1620,
"DC709": 1621,
"DC71": 1622,
"DC710": 1623,
"DC710A": 1624,
"DC710B": 1625,
"DC711": 1626,
"DC712": 1627,
"DC713": 1628,
"DC714": 1629,
"DC715": 1630,
"DC716": 1631,
"DC717": 1632,
"DC717A": 1633,
"DC717B": 1634,
"DC717C": 1635,
"DC718": 1636,
"DC719": 1637,
"DC72": 1638,
"DC720": 1639,
"DC721": 1640,
"DC722": 1641,
"DC722A": 1642,
"DC723": 1643,
"DC724": 1644,
"DC725": 1645,
"DC728": 1646,
"DC729": 1647,
"DC73": 1648,
"DC739": 1649,
"DC74": 1650,
"DC740": 1651,
"DC741": 1652,
"DC749": 1653,
"DC75": 1654,
"DC750": 1655,
"DC751": 1656,
"DC752": 1657,
"DC753": 1658,
"DC754": 1659,
"DC755": 1660,
"DC755A": 1661,
"DC755B": 1662,
"DC758": 1663,
"DC759": 1664,
"DC76": 1665,
"DC760": 1666,
"DC760A": 1667,
"DC760B": 1668,
"DC760C": 1669,
"DC761": 1670,
"DC762": 1671,
"DC763": 1672,
"DC764": 1673,
"DC765": 1674,
"DC767": 1675,
"DC768": 1676,
"DC77": 1677,
"DC770": 1678,
"DC770A": 1679,
"DC770A1": 1680,
"DC770A2": 1681,
"DC770B": 1682,
"DC770C": 1683,
"DC770C1": 1684,
"DC770C2": 1685,
"DC770D": 1686,
"DC770E": 1687,
"DC770E1": 1688,
"DC770E2": 1689,
"DC770F": 1690,
"DC770G": 1691,
"DC770G1": 1692,
"DC770G2": 1693,
"DC770H": 1694,
"DC771": 1695,
"DC771A": 1696,
"DC771A1": 1697,
"DC771A2": 1698,
"DC771B": 1699,
"DC772": 1700,
"DC772A": 1701,
"DC772A1": 1702,
"DC772A2": 1703,
"DC772B": 1704,
"DC773": 1705,
"DC773A": 1706,
"DC773A1": 1707,
"DC773A2": 1708,
"DC773B": 1709,
"DC773C": 1710,
"DC773C1": 1711,
"DC773C2": 1712,
"DC773D": 1713,
"DC773E": 1714,
"DC773E1": 1715,
"DC773E2": 1716,
"DC773F": 1717,
"DC774": 1718,
"DC774A": 1719,
"DC774A1": 1720,
"DC774A2": 1721,
"DC774B": 1722,
"DC774C": 1723,
"DC774C1": 1724,
"DC774C2": 1725,
"DC774D": 1726,
"DC775": 1727,
"DC775A": 1728,
"DC775A1": 1729,
"DC775A2": 1730,
"DC775B": 1731,
"DC778": 1732,
"DC778A": 1733,
"DC778A1": 1734,
"DC778A2": 1735,
"DC778B": 1736,
"DC779": 1737,
"DC779A": 1738,
"DC779A1": 1739,
"DC779A2": 1740,
"DC779B": 1741,
"DC78": 1742,
"DC780": 1743,
"DC781": 1744,
"DC782": 1745,
"DC782A": 1746,
"DC782B": 1747,
"DC783": 1748,
"DC784": 1749,
"DC784A": 1750,
"DC785": 1751,
"DC785A": 1752,
"DC785B": 1753,
"DC786": 1754,
"DC786A": 1755,
"DC786B": 1756,
"DC786C": 1757,
"DC786D": 1758,
"DC786E": 1759,
"DC787": 1760,
"DC788": 1761,
"DC79": 1762,
"DC790": 1763,
"DC790A": 1764,
"DC790B": 1765,
"DC791": 1766,
"DC791I": 1767,
"DC791J": 1768,
"DC791S": 1769,
"DC791T": 1770,
"DC791U": 1771,
"DC791V": 1772,
"DC792": 1773,
"DC793": 1774,
"DC793A": 1775,
"DC793B": 1776,
"DC793C": 1777,
"DC794": 1778,
"DC795": 1779,
"DC795A": 1780,
"DC795B": 1781,
"DC795C": 1782,
"DC795D": 1783,
"DC795E": 1784,
"DC796": 1785,
"DC797": 1786,
"DC798": 1787,
"DC798A": 1788,
"DC798C": 1789,
"DC798D": 1790,
"DC798E": 1791,
"DC798F": 1792,
"DC798Z": 1793,
"DC799": 1794,
"DC80": 1795,
"DC800": 1796,
"DC809": 1797,
"DC809A": 1798,
"DC81": 1799,
"DC810": 1800,
"DC811": 1801,
"DC812": 1802,
"DC813": 1803,
"DC814": 1804,
"DC817": 1805,
"DC819": 1806,
"DC82": 1807,
"DC820": 1808,
"DC821": 1809,
"DC822": 1810,
"DC825": 1811,
"DC826": 1812,
"DC827": 1813,
"DC829": 1814,
"DC83": 1815,
"DC830": 1816,
"DC830B": 1817,
"DC830C": 1818,
"DC830D": 1819,
"DC831": 1820,
"DC831A": 1821,
"DC831B": 1822,
"DC833": 1823,
"DC833A": 1824,
"DC833B": 1825,
"DC833C": 1826,
"DC833D": 1827,
"DC833E": 1828,
"DC833F": 1829,
"DC835": 1830,
"DC835A": 1831,
"DC835B": 1832,
"DC835C": 1833,
"DC837": 1834,
"DC837A": 1835,
"DC837B": 1836,
"DC838": 1837,
"DC838A": 1838,
"DC838B": 1839,
"DC839": 1840,
"DC84": 1841,
"DC840": 1842,
"DC840A": 1843,
"DC840B": 1844,
"DC840C": 1845,
"DC841": 1846,
"DC844": 1847,
"DC844F": 1848,
"DC844H": 1849,
"DC845": 1850,
"DC846": 1851,
"DC846A": 1852,
"DC847": 1853,
"DC848": 1854,
"DC849": 1855,
"DC85": 1856,
"DC851": 1857,
"DC852": 1858,
"DC857": 1859,
"DC857B": 1860,
"DC859": 1861,
"DC86": 1862,
"DC860": 1863,
"DC861": 1864,
"DC862": 1865,
"DC863": 1866,
"DC864": 1867,
"DC865": 1868,
"DC866": 1869,
"DC866B": 1870,
"DC866C": 1871,
"DC88": 1872,
"DC880": 1873,
"DC882": 1874,
"DC882A": 1875,
"DC882B": 1876,
"DC883": 1877,
"DC883A": 1878,
"DC883B": 1879,
"DC884": 1880,
"DC884A": 1881,
"DC884B": 1882,
"DC884C": 1883,
"DC887": 1884,
"DC889": 1885,
"DC90": 1886,
"DC900": 1887,
"DC901": 1888,
"DC902": 1889,
"DC903": 1890,
"DC91": 1891,
"DC910": 1892,
"DC911": 1893,
"DC911A": 1894,
"DC911B": 1895,
"DC913": 1896,
"DC914": 1897,
"DC915": 1898,
"DC915A": 1899,
"DC915B": 1900,
"DC915C": 1901,
"DC915D": 1902,
"DC916": 1903,
"DC917": 1904,
"DC917B": 1905,
"DC918": 1906,
"DC919": 1907,
"DC92": 1908,
"DC920": 1909,
"DC920A": 1910,
"DC920B": 1911,
"DC920C": 1912,
"DC920D": 1913,
"DC920E": 1914,
"DC920F": 1915,
"DC920G": 1916,
"DC920H": 1917,
"DC921": 1918,
"DC921A": 1919,
"DC922": 1920,
"DC923": 1921,
"DC923A": 1922,
"DC923B": 1923,
"DC924": 1924,
"DC924A": 1925,
"DC925": 1926,
"DC925A": 1927,
"DC926": 1928,
"DC926A": 1929,
"DC927": 1930,
"DC927B": 1931,
"DC928": 1932,
"DC929": 1933,
"DC93": 1934,
"DC930": 1935,
"DC930A": 1936,
"DC930B": 1937,
"DC931": 1938,
"DC931A": 1939,
"DC931B": 1940,
"DC931C": 1941,
"DC933": 1942,
"DC937": 1943,
"DC939": 1944,
"DC94": 1945,
"DC940": 1946,
"DC940A": 1947,
"DC942": 1948,
"DC943": 1949,
"DC944": 1950,
"DC946": 1951,
"DC947": 1952,
"DC947B": 1953,
"DC947C": 1954,
"DC95": 1955,
"DC950": 1956,
"DC950C": 1957,
"DC950D": 1958,
"DC951": 1959,
"DC957": 1960,
"DC959": 1961,
"DC96": 1962,
"DC960": 1963,
"DC960A": 1964,
"DC962": 1965,
"DC962B": 1966,
"DC964": 1967,
"DC964A": 1968,
"DC964B": 1969,
"DC964C": 1970,
"DC965": 1971,
"DC965A": 1972,
"DC965B": 1973,
"DC966": 1974,
"DC966A": 1975,
"DC966B": 1976,
"DC966C": 1977,
"DC966D": 1978,
"DC967": 1979,
"DC967A": 1980,
"DC968": 1981,
"DC969": 1982,
"DC99": 1983,
"DC991": 1984,
"DC991A": 1985,
"DC991B": 1986,
"DC991C": 1987,
"DC991D": 1988,
"DC991E": 1989,
"DC991Y": 1990,
"DD00": 1991,
"DD000": 1992,
"DD000A": 1993,
"DD000B": 1994,
"DD000C": 1995,
"DD001": 1996,
"DD002": 1997,
"DD01": 1998,
"DD010": 1999,
"DD012": 2000,
"DD013": 2001,
"DD013A": 2002,
"DD013B": 2003,
"DD014": 2004,
"DD014A": 2005,
"DD015": 2006,
"DD015A": 2007,
"DD015B": 2008,
"DD015C": 2009,
"DD015D": 2010,
"DD017": 2011,
"DD017A": 2012,
"DD019": 2013,
"DD02": 2014,
"DD020": 2015,
"DD021": 2016,
"DD022": 2017,
"DD022A": 2018,
"DD022B": 2019,
"DD023": 2020,
"DD023A": 2021,
"DD023B": 2022,
"DD023C": 2023,
"DD024": 2024,
"DD03": 2025,
"DD030": 2026,
"DD031": 2027,
"DD031A": 2028,
"DD032": 2029,
"DD032A": 2030,
"DD032B": 2031,
"DD033": 2032,
"DD033A": 2033,
"DD034": 2034,
"DD034A": 2035,
"DD034B": 2036,
"DD035": 2037,
"DD035A": 2038,
"DD035B": 2039,
"DD035C": 2040,
"DD035G": 2041,
"DD036": 2042,
"DD036A": 2043,
"DD036B": 2044,
"DD037": 2045,
"DD037A": 2046,
"DD037B": 2047,
"DD038": 2048,
"DD039": 2049,
"DD04": 2050,
"DD040": 2051,
"DD041": 2052,
"DD041A": 2053,
"DD042": 2054,
"DD042A": 2055,
"DD042B": 2056,
"DD043": 2057,
"DD043A": 2058,
"DD043B": 2059,
"DD043C": 2060,
"DD044": 2061,
"DD044A": 2062,
"DD044B": 2063,
"DD045": 2064,
"DD045A": 2065,
"DD045B": 2066,
"DD045C": 2067,
"DD046": 2068,
"DD046A": 2069,
"DD046B": 2070,
"DD047": 2071,
"DD047A": 2072,
"DD047B": 2073,
"DD048": 2074,
"DD049": 2075,
"DD05": 2076,
"DD050": 2077,
"DD051": 2078,
"DD056": 2079,
"DD057": 2080,
"DD059": 2081,
"DD06": 2082,
"DD069": 2083,
"DD07": 2084,
"DD070": 2085,
"DD071": 2086,
"DD071A": 2087,
"DD072": 2088,
"DD072A": 2089,
"DD073": 2090,
"DD073A": 2091,
"DD073B": 2092,
"DD073B1": 2093,
"DD073C": 2094,
"DD074": 2095,
"DD075": 2096,
"DD076": 2097,
"DD076A": 2098,
"DD076B": 2099,
"DD076T": 2100,
"DD09": 2101,
"DD090": 2102,
"DD091": 2103,
"DD091A": 2104,
"DD091B": 2105,
"DD091C": 2106,
"DD091D": 2107,
"DD092": 2108,
"DD093": 2109,
"DD093A": 2110,
"DD093B": 2111,
"DD095": 2112,
"DD096": 2113,
"DD096B": 2114,
"DD096C": 2115,
"DD096D": 2116,
"DD097": 2117,
"DD097A": 2118,
"DD099": 2119,
"DD10": 2120,
"DD100": 2121,
"DD101": 2122,
"DD101A": 2123,
"DD102": 2124,
"DD103": 2125,
"DD103A": 2126,
"DD103B": 2127,
"DD104": 2128,
"DD104A": 2129,
"DD105": 2130,
"DD106": 2131,
"DD106A": 2132,
"DD107": 2133,
"DD109": 2134,
"DD11": 2135,
"DD110": 2136,
"DD117": 2137,
"DD117A": 2138,
"DD117B": 2139,
"DD119": 2140,
"DD12": 2141,
"DD120": 2142,
"DD120A": 2143,
"DD121": 2144,
"DD122": 2145,
"DD123": 2146,
"DD123A": 2147,
"DD123B": 2148,
"DD124": 2149,
"DD125": 2150,
"DD126": 2151,
"DD126A": 2152,
"DD126B": 2153,
"DD126C": 2154,
"DD126F": 2155,
"DD128": 2156,
"DD129": 2157,
"DD129A": 2158,
"DD129B": 2159,
"DD13": 2160,
"DD130": 2161,
"DD131": 2162,
"DD132": 2163,
"DD133": 2164,
"DD134": 2165,
"DD134A": 2166,
"DD135": 2167,
"DD136": 2168,
"DD137": 2169,
"DD137A": 2170,
"DD137B": 2171,
"DD139": 2172,
"DD139A": 2173,
"DD14": 2174,
"DD140": 2175,
"DD140A": 2176,
"DD140B": 2177,
"DD140C": 2178,
"DD140D": 2179,
"DD141": 2180,
"DD142": 2181,
"DD143": 2182,
"DD143A": 2183,
"DD143B": 2184,
"DD144": 2185,
"DD15": 2186,
"DD150": 2187,
"DD151": 2188,
"DD152": 2189,
"DD157": 2190,
"DD159": 2191,
"DD16": 2192,
"DD160": 2193,
"DD160C": 2194,
"DD160D": 2195,
"DD161": 2196,
"DD162": 2197,
"DD163": 2198,
"DD163C": 2199,
"DD164": 2200,
"DD164C": 2201,
"DD164D": 2202,
"DD164E": 2203,
"DD165": 2204,
"DD166": 2205,
"DD167": 2206,
"DD167D": 2207,
"DD167E": 2208,
"DD167F": 2209,
"DD168": 2210,
"DD168D": 2211,
"DD168E": 2212,
"DD168F": 2213,
"DD169": 2214,
"DD17": 2215,
"DD170": 2216,
"DD170A": 2217,
"DD170B": 2218,
"DD170C": 2219,
"DD170D": 2220,
"DD170E": 2221,
"DD170F": 2222,
"DD171": 2223,
"DD171C": 2224,
"DD172": 2225,
"DD173": 2226,
"DD174": 2227,
"DD175": 2228,
"DD176": 2229,
"DD177": 2230,
"DD177A": 2231,
"DD177B": 2232,
"DD177C": 2233,
"DD179": 2234,
"DD18": 2235,
"DD180": 2236,
"DD180A": 2237,
"DD180B": 2238,
"DD180C": 2239,
"DD180D": 2240,
"DD180E": 2241,
"DD180F": 2242,
"DD181": 2243,
"DD181A": 2244,
"DD181B": 2245,
"DD189": 2246,
"DD19": 2247,
"DD190": 2248,
"DD191": 2249,
"DD197": 2250,
"DD199": 2251,
"DD20": 2252,
"DD200": 2253,
"DD201": 2254,
"DD21": 2255,
"DD210": 2256,
"DD210A": 2257,
"DD210B": 2258,
"DD210C": 2259,
"DD211": 2260,
"DD211A": 2261,
"DD212": 2262,
"DD212B": 2263,
"DD213": 2264,
"DD214": 2265,
"DD215": 2266,
"DD216": 2267,
"DD216A": 2268,
"DD217": 2269,
"DD219": 2270,
"DD22": 2271,
"DD220": 2272,
"DD221": 2273,
"DD222": 2274,
"DD222A": 2275,
"DD222B": 2276,
"DD223": 2277,
"DD224": 2278,
"DD224A": 2279,
"DD224B": 2280,
"DD225": 2281,
"DD225A": 2282,
"DD225B": 2283,
"DD225C": 2284,
"DD226": 2285,
"DD226A": 2286,
"DD227": 2287,
"DD227A": 2288,
"DD228": 2289,
"DD229": 2290,
"DD229Q": 2291,
"DD23": 2292,
"DD230": 2293,
"DD231": 2294,
"DD231A": 2295,
"DD232": 2296,
"DD232A": 2297,
"DD232B": 2298,
"DD233": 2299,
"DD234": 2300,
"DD234A": 2301,
"DD234B": 2302,
"DD235": 2303,
"DD235A": 2304,
"DD235B": 2305,
"DD235C": 2306,
"DD236": 2307,
"DD236A": 2308,
"DD237": 2309,
"DD237A": 2310,
"DD239": 2311,
"DD24": 2312,
"DD249": 2313,
"DD249A": 2314,
"DD249C": 2315,
"DD249D": 2316,
"DD249E": 2317,
"DD249F": 2318,
"DD249G": 2319,
"DD249W": 2320,
"DD25": 2321,
"DD250": 2322,
"DD250A": 2323,
"DD250B": 2324,
"DD250C": 2325,
"DD251": 2326,
"DD252": 2327,
"DD259": 2328,
"DD26": 2329,
"DD260": 2330,
"DD261": 2331,
"DD267": 2332,
"DD269": 2333,
"DD27": 2334,
"DD270": 2335,
"DD271": 2336,
"DD272": 2337,
"DD278": 2338,
"DD279": 2339,
"DD28": 2340,
"DD280": 2341,
"DD281": 2342,
"DD282": 2343,
"DD282A": 2344,
"DD282B": 2345,
"DD282C": 2346,
"DD287": 2347,
"DD289": 2348,
"DD29": 2349,
"DD290": 2350,
"DD291": 2351,
"DD292": 2352,
"DD293": 2353,
"DD294": 2354,
"DD297": 2355,
"DD297A": 2356,
"DD297B": 2357,
"DD297C": 2358,
"DD299": 2359,
"DD30": 2360,
"DD300": 2361,
"DD301": 2362,
"DD302": 2363,
"DD303": 2364,
"DD304": 2365,
"DD307": 2366,
"DD309": 2367,
"DD31": 2368,
"DD310": 2369,
"DD311": 2370,
"DD312": 2371,
"DD313": 2372,
"DD314": 2373,
"DD315": 2374,
"DD315A": 2375,
"DD315B": 2376,
"DD315C": 2377,
"DD316": 2378,
"DD316A": 2379,
"DD319": 2380,
"DD32": 2381,
"DD320": 2382,
"DD321": 2383,
"DD329": 2384,
"DD33": 2385,
"DD330": 2386,
"DD330A": 2387,
"DD330B": 2388,
"DD330C": 2389,
"DD330D": 2390,
"DD331": 2391,
"DD331A": 2392,
"DD331B": 2393,
"DD331C": 2394,
"DD331D": 2395,
"DD332": 2396,
"DD333": 2397,
"DD333A": 2398,
"DD333B": 2399,
"DD334": 2400,
"DD337": 2401,
"DD339": 2402,
"DD34": 2403,
"DD349": 2404,
"DD35": 2405,
"DD350": 2406,
"DD350A": 2407,
"DD351": 2408,
"DD352": 2409,
"DD352A": 2410,
"DD353": 2411,
"DD354": 2412,
"DD355": 2413,
"DD356": 2414,
"DD356A": 2415,
"DD356B": 2416,
"DD356C": 2417,
"DD357": 2418,
"DD358": 2419,
"DD359": 2420,
"DD36": 2421,
"DD360": 2422,
"DD361": 2423,
"DD361A": 2424,
"DD361B": 2425,
"DD367": 2426,
"DD367A": 2427,
"DD369": 2428,
"DD37": 2429,
"DD370": 2430,
"DD370A": 2431,
"DD370B": 2432,
"DD370C": 2433,
"DD371": 2434,
"DD372": 2435,
"DD373": 2436,
"DD374": 2437,
"DD375": 2438,
"DD376": 2439,
"DD376A": 2440,
"DD376B": 2441,
"DD376C": 2442,
"DD377": 2443,
"DD377A": 2444,
"DD377B": 2445,
"DD377C": 2446,
"DD379": 2447,
"DD38": 2448,
"DD380": 2449,
"DD381": 2450,
"DD381A": 2451,
"DD381B": 2452,
"DD381C": 2453,
"DD382": 2454,
"DD383": 2455,
"DD384": 2456,
"DD385": 2457,
"DD385A": 2458,
"DD385B": 2459,
"DD385C": 2460,
"DD385D": 2461,
"DD389": 2462,
"DD39": 2463,
"DD390": 2464,
"DD391": 2465,
"DD391A": 2466,
"DD392": 2467,
"DD392A": 2468,
"DD392B": 2469,
"DD397": 2470,
"DD397A": 2471,
"DD399": 2472,
"DD40": 2473,
"DD400": 2474,
"DD401": 2475,
"DD407": 2476,
"DD407A": 2477,
"DD409": 2478,
"DD41": 2479,
"DD410": 2480,
"DD411": 2481,
"DD412": 2482,
"DD413": 2483,
"DD414": 2484,
"DD417": 2485,
"DD419": 2486,
"DD42": 2487,
"DD420": 2488,
"DD421": 2489,
"DD429": 2490,
"DD43": 2491,
"DD430": 2492,
"DD430B": 2493,
"DD430C": 2494,
"DD430D": 2495,
"DD430E": 2496,
"DD430F": 2497,
"DD431": 2498,
"DD431G": 2499,
"DD431H": 2500,
"DD431J": 2501,
"DD432": 2502,
"DD433": 2503,
"DD434": 2504,
"DD437": 2505,
"DD439": 2506,
"DD44": 2507,
"DD440": 2508,
"DD441": 2509,
"DD442": 2510,
"DD443": 2511,
"DD444": 2512,
"DD445": 2513,
"DD446": 2514,
"DD447": 2515,
"DD447A": 2516,
"DD447B": 2517,
"DD448": 2518,
"DD448A": 2519,
"DD449": 2520,
"DD45": 2521,
"DD459": 2522,
"DD46": 2523,
"DD460": 2524,
"DD460A": 2525,
"DD460B": 2526,
"DD460C": 2527,
"DD461": 2528,
"DD462": 2529,
"DD462A": 2530,
"DD462B": 2531,
"DD464": 2532,
"DD465": 2533,
"DD466": 2534,
"DD467": 2535,
"DD469": 2536,
"DD47": 2537,
"DD470": 2538,
"DD470A": 2539,
"DD470B": 2540,
"DD470C": 2541,
"DD471": 2542,
"DD471B": 2543,
"DD472": 2544,
"DD472A": 2545,
"DD472B": 2546,
"DD473": 2547,
"DD474": 2548,
"DD474A": 2549,
"DD474B": 2550,
"DD474C": 2551,
"DD475": 2552,
"DD477": 2553,
"DD477A": 2554,
"DD477C": 2555,
"DD477D": 2556,
"DD479": 2557,
"DD479A": 2558,
"DD479B": 2559,
"DD48": 2560,
"DD480": 2561,
"DD481": 2562,
"DD482": 2563,
"DD482A": 2564,
"DD482B": 2565,
"DD482C": 2566,
"DD482D": 2567,
"DD482E": 2568,
"DD483": 2569,
"DD484": 2570,
"DD485": 2571,
"DD485A": 2572,
"DD485B": 2573,
"DD485C": 2574,
"DD485D": 2575,
"DD486": 2576,
"DD486A": 2577,
"DD487": 2578,
"DD487A": 2579,
"DD487B": 2580,
"DD487C": 2581,
"DD487D": 2582,
"DD489": 2583,
"DD50": 2584,
"DD500": 2585,
"DD501": 2586,
"DD501A": 2587,
"DD508": 2588,
"DD508A": 2589,
"DD509": 2590,
"DD509A": 2591,
"DD51": 2592,
"DD510": 2593,
"DD511": 2594,
"DD511A": 2595,
"DD512": 2596,
"DD513": 2597,
"DD513A": 2598,
"DD518": 2599,
"DD519": 2600,
"DD52": 2601,
"DD520": 2602,
"DD521": 2603,
"DD528": 2604,
"DD529": 2605,
"DD53": 2606,
"DD530": 2607,
"DD531": 2608,
"DD531A": 2609,
"DD532": 2610,
"DD538": 2611,
"DD538A": 2612,
"DD538B": 2613,
"DD538C": 2614,
"DD538M": 2615,
"DD539": 2616,
"DD55": 2617,
"DD550": 2618,
"DD551": 2619,
"DD552": 2620,
"DD553": 2621,
"DD558": 2622,
"DD559": 2623,
"DD56": 2624,
"DD560": 2625,
"DD561": 2626,
"DD561A": 2627,
"DD561C": 2628,
"DD562": 2629,
"DD563": 2630,
"DD564": 2631,
"DD568": 2632,
"DD569": 2633,
"DD57": 2634,
"DD570": 2635,
"DD571": 2636,
"DD572": 2637,
"DD572A": 2638,
"DD572B": 2639,
"DD572C": 2640,
"DD572D": 2641,
"DD573": 2642,
"DD578": 2643,
"DD58": 2644,
"DD580": 2645,
"DD581": 2646,
"DD581A": 2647,
"DD582": 2648,
"DD582A": 2649,
"DD582B": 2650,
"DD582C": 2651,
"DD582D": 2652,
"DD582E": 2653,
"DD588": 2654,
"DD588A": 2655,
"DD589": 2656,
"DD59": 2657,
"DD590": 2658,
"DD591": 2659,
"DD591A": 2660,
"DD592": 2661,
"DD593": 2662,
"DD594": 2663,
"DD594A": 2664,
"DD594B": 2665,
"DD594C": 2666,
"DD595": 2667,
"DD596": 2668,
"DD596A": 2669,
"DD596B": 2670,
"DD598": 2671,
"DD599": 2672,
"DD599A": 2673,
"DD60": 2674,
"DD600": 2675,
"DD601": 2676,
"DD608": 2677,
"DD609": 2678,
"DD61": 2679,
"DD610": 2680,
"DD610A": 2681,
"DD610B": 2682,
"DD610C": 2683,
"DD610D": 2684,
"DD610E": 2685,
"DD611": 2686,
"DD612": 2687,
"DD613": 2688,
"DD618": 2689,
"DD619": 2690,
"DD619A": 2691,
"DD619B": 2692,
"DD619C": 2693,
"DD619D": 2694,
"DD62": 2695,
"DD629": 2696,
"DD63": 2697,
"DD630": 2698,
"DD638": 2699,
"DD64": 2700,
"DD640": 2701,
"DD640A": 2702,
"DD641": 2703,
"DD642": 2704,
"DD643": 2705,
"DD643A": 2706,
"DD644": 2707,
"DD648": 2708,
"DD648A": 2709,
"DD648B": 2710,
"DD649": 2711,
"DD65": 2712,
"DD659": 2713,
"DD659A": 2714,
"DD659B": 2715,
"DD659C": 2716,
"DD659D": 2717,
"DD66": 2718,
"DD669": 2719,
"DD669B": 2720,
"DD669C": 2721,
"DD669D": 2722,
"DD669E": 2723,
"DD67": 2724,
"DD679": 2725,
"DD679A": 2726,
"DD679B": 2727,
"DD679C": 2728,
"DD679D": 2729,
"DD68": 2730,
"DD680": 2731,
"DD681": 2732,
"DD682": 2733,
"DD682A": 2734,
"DD683": 2735,
"DD683A": 2736,
"DD684": 2737,
"DD684A": 2738,
"DD684B": 2739,
"DD684C": 2740,
"DD685": 2741,
"DD685A": 2742,
"DD685B": 2743,
"DD685E": 2744,
"DD685F": 2745,
"DD685K": 2746,
"DD685L": 2747,
"DD685M": 2748,
"DD686": 2749,
"DD686E": 2750,
"DD686F": 2751,
"DD686G": 2752,
"DD688": 2753,
"DD689": 2754,
"DD69": 2755,
"DD690": 2756,
"DD690A": 2757,
"DD690B": 2758,
"DD690C": 2759,
"DD690D": 2760,
"DD690E": 2761,
"DD690F": 2762,
"DD691": 2763,
"DD691A": 2764,
"DD691B": 2765,
"DD691C": 2766,
"DD692": 2767,
"DD692B": 2768,
"DD692C": 2769,
"DD692D": 2770,
"DD692E": 2771,
"DD692F": 2772,
"DD692H": 2773,
"DD693": 2774,
"DD694": 2775,
"DD694A": 2776,
"DD695": 2777,
"DD696": 2778,
"DD698": 2779,
"DD698A": 2780,
"DD698B": 2781,
"DD699": 2782,
"DD70": 2783,
"DD709": 2784,
"DD709A": 2785,
"DD709B": 2786,
"DD709C": 2787,
"DD709D": 2788,
"DD709E": 2789,
"DD71": 2790,
"DD719": 2791,
"DD719A": 2792,
"DD719B": 2793,
"DD719C": 2794,
"DD719D": 2795,
"DD72": 2796,
"DD720": 2797,
"DD720A": 2798,
"DD720B": 2799,
"DD720C": 2800,
"DD720D": 2801,
"DD720E": 2802,
"DD720F": 2803,
"DD721": 2804,
"DD721A": 2805,
"DD721B": 2806,
"DD728": 2807,
"DD728A": 2808,
"DD728B": 2809,
"DD728C": 2810,
"DD728D": 2811,
"DD728E": 2812,
"DD728F": 2813,
"DD728G": 2814,
"DD728H": 2815,
"DD729": 2816,
"DD73": 2817,
"DD730": 2818,
"DD730A": 2819,
"DD730B": 2820,
"DD731": 2821,
"DD732": 2822,
"DD733": 2823,
"DD734": 2824,
"DD735": 2825,
"DD735A": 2826,
"DD735B": 2827,
"DD738": 2828,
"DD738A": 2829,
"DD738C": 2830,
"DD738D": 2831,
"DD739": 2832,
"DD74": 2833,
"DD740": 2834,
"DD740A": 2835,
"DD740B": 2836,
"DD748": 2837,
"DD748A": 2838,
"DD748B": 2839,
"DD748C": 2840,
"DD749": 2841,
"DD75": 2842,
"DD750": 2843,
"DD751": 2844,
"DD751C": 2845,
"DD751D": 2846,
"DD751E": 2847,
"DD751F": 2848,
"DD751G": 2849,
"DD751H": 2850,
"DD758": 2851,
"DD758C": 2852,
"DD758D": 2853,
"DD759": 2854,
"DD76": 2855,
"DD761": 2856,
"DD761A": 2857,
"DD762": 2858,
"DD763": 2859,
"DD763A": 2860,
"DD763B": 2861,
"DD763D": 2862,
"DD77": 2863,
"DD779": 2864,
"DD779A": 2865,
"DD80": 2866,
"DD800": 2867,
"DD800A": 2868,
"DD800B": 2869,
"DD801": 2870,
"DD801A": 2871,
"DD801B": 2872,
"DD801C": 2873,
"DD802": 2874,
"DD803": 2875,
"DD804": 2876,
"DD805": 2877,
"DD806": 2878,
"DD807": 2879,
"DD808": 2880,
"DD808A": 2881,
"DD809": 2882,
"DD81": 2883,
"DD810": 2884,
"DD811": 2885,
"DD812": 2886,
"DD813": 2887,
"DD814": 2888,
"DD815": 2889,
"DD816": 2890,
"DD817": 2891,
"DD818": 2892,
"DD819": 2893,
"DD819A": 2894,
"DD82": 2895,
"DD820": 2896,
"DD821": 2897,
"DD822": 2898,
"DD823": 2899,
"DD823A": 2900,
"DD824": 2901,
"DD828": 2902,
"DD829": 2903,
"DD83": 2904,
"DD830": 2905,
"DD831": 2906,
"DD832": 2907,
"DD838": 2908,
"DD839": 2909,
"DD84": 2910,
"DD840": 2911,
"DD841": 2912,
"DD841A": 2913,
"DD841B": 2914,
"DD848": 2915,
"DD849": 2916,
"DD86": 2917,
"DD860": 2918,
"DD861": 2919,
"DD862": 2920,
"DD863": 2921,
"DD863A": 2922,
"DD868": 2923,
"DD868A": 2924,
"DD868G": 2925,
"DD869": 2926,
"DD89": 2927,
"DD890": 2928,
"DD890A": 2929,
"DD890B": 2930,
"DD891": 2931,
"DD892": 2932,
"DD898": 2933,
"DD899": 2934,
"DE00": 2935,
"DE000": 2936,
"DE001": 2937,
"DE002": 2938,
"DE009": 2939,
"DE01": 2940,
"DE010": 2941,
"DE011": 2942,
"DE012": 2943,
"DE018": 2944,
"DE02": 2945,
"DE029": 2946,
"DE03": 2947,
"DE030": 2948,
"DE030A": 2949,
"DE031": 2950,
"DE031A": 2951,
"DE031B": 2952,
"DE031C": 2953,
"DE032": 2954,
"DE033": 2955,
"DE034": 2956,
"DE035": 2957,
"DE038": 2958,
"DE039": 2959,
"DE04": 2960,
"DE040": 2961,
"DE041": 2962,
"DE042": 2963,
"DE042A": 2964,
"DE048": 2965,
"DE048A": 2966,
"DE049": 2967,
"DE05": 2968,
"DE050": 2969,
"DE051": 2970,
"DE052": 2971,
"DE052A": 2972,
"DE053": 2973,
"DE054": 2974,
"DE055": 2975,
"DE058": 2976,
"DE058A": 2977,
"DE058B": 2978,
"DE058C": 2979,
"DE059": 2980,
"DE059A": 2981,
"DE06": 2982,
"DE060": 2983,
"DE060A": 2984,
"DE060B": 2985,
"DE061": 2986,
"DE061C": 2987,
"DE062": 2988,
"DE063": 2989,
"DE063A": 2990,
"DE063B": 2991,
"DE064": 2992,
"DE065": 2993,
"DE065A": 2994,
"DE065B": 2995,
"DE065C": 2996,
"DE065D": 2997,
"DE069": 2998,
"DE07": 2999,
"DE070": 3000,
"DE070A": 3001,
"DE071": 3002,
"DE071A": 3003,
"DE071B": 3004,
"DE078": 3005,
"DE078B": 3006,
"DE078C": 3007,
"DE078D": 3008,
"DE078E": 3009,
"DE079": 3010,
"DE10": 3011,
"DE100": 3012,
"DE101": 3013,
"DE102": 3014,
"DE103": 3015,
"DE104": 3016,
"DE105": 3017,
"DE105A": 3018,
"DE105B": 3019,
"DE105C": 3020,
"DE105D": 3021,
"DE106": 3022,
"DE107": 3023,
"DE108": 3024,
"DE109": 3025,
"DE109A": 3026,
"DE11": 3027,
"DE110": 3028,
"DE111": 3029,
"DE112": 3030,
"DE113": 3031,
"DE114": 3032,
"DE115": 3033,
"DE115A": 3034,
"DE115B": 3035,
"DE115C": 3036,
"DE115D": 3037,
"DE116": 3038,
"DE117": 3039,
"DE118": 3040,
"DE119": 3041,
"DE119A": 3042,
"DE12": 3043,
"DE120": 3044,
"DE121": 3045,
"DE122": 3046,
"DE123": 3047,
"DE124": 3048,
"DE125": 3049,
"DE125A": 3050,
"DE125B": 3051,
"DE125C": 3052,
"DE125D": 3053,
"DE126": 3054,
"DE127": 3055,
"DE128": 3056,
"DE129": 3057,
"DE13": 3058,
"DE130": 3059,
"DE131": 3060,
"DE132": 3061,
"DE133": 3062,
"DE134": 3063,
"DE135": 3064,
"DE135A": 3065,
"DE135B": 3066,
"DE135C": 3067,
"DE135D": 3068,
"DE136": 3069,
"DE137": 3070,
"DE138": 3071,
"DE139": 3072,
"DE14": 3073,
"DE140": 3074,
"DE141": 3075,
"DE142": 3076,
"DE143": 3077,
"DE144": 3078,
"DE145": 3079,
"DE145A": 3080,
"DE145B": 3081,
"DE145C": 3082,
"DE145D": 3083,
"DE146": 3084,
"DE147": 3085,
"DE148": 3086,
"DE149": 3087,
"DE15": 3088,
"DE159": 3089,
"DE159B": 3090,
"DE16": 3091,
"DE160": 3092,
"DE161": 3093,
"DE161A": 3094,
"DE161B": 3095,
"DE161C": 3096,
"DE161D": 3097,
"DE162": 3098,
"DE163": 3099,
"DE163A": 3100,
"DE164": 3101,
"DE164A": 3102,
"DE164B": 3103,
"DE168": 3104,
"DE168B": 3105,
"DE168C": 3106,
"DE168D": 3107,
"DE168F": 3108,
"DE169": 3109,
"DE169A": 3110,
"DE20": 3111,
"DE200": 3112,
"DE201": 3113,
"DE208": 3114,
"DE209": 3115,
"DE21": 3116,
"DE210": 3117,
"DE210A": 3118,
"DE210B": 3119,
"DE211": 3120,
"DE212": 3121,
"DE212A": 3122,
"DE213": 3123,
"DE213A": 3124,
"DE214": 3125,
"DE215": 3126,
"DE22": 3127,
"DE220": 3128,
"DE220A": 3129,
"DE220C": 3130,
"DE221": 3131,
"DE222": 3132,
"DE222A": 3133,
"DE228": 3134,
"DE228A": 3135,
"DE229": 3136,
"DE23": 3137,
"DE230": 3138,
"DE230A": 3139,
"DE230B": 3140,
"DE230C": 3141,
"DE230D": 3142,
"DE230E": 3143,
"DE230F": 3144,
"DE230G": 3145,
"DE230H": 3146,
"DE230I": 3147,
"DE231": 3148,
"DE232": 3149,
"DE233": 3150,
"DE236": 3151,
"DE236A": 3152,
"DE236B": 3153,
"DE236C": 3154,
"DE236E": 3155,
"DE237": 3156,
"DE24": 3157,
"DE240": 3158,
"DE241": 3159,
"DE242": 3160,
"DE243": 3161,
"DE244": 3162,
"DE248": 3163,
"DE249": 3164,
"DE25": 3165,
"DE250": 3166,
"DE250B": 3167,
"DE250C": 3168,
"DE250D": 3169,
"DE258": 3170,
"DE258A": 3171,
"DE259": 3172,
"DE26": 3173,
"DE260": 3174,
"DE260B": 3175,
"DE261": 3176,
"DE268": 3177,
"DE268A": 3178,
"DE269": 3179,
"DE27": 3180,
"DE270": 3181,
"DE270A": 3182,
"DE270B": 3183,
"DE271": 3184,
"DE271A": 3185,
"DE271B": 3186,
"DE272": 3187,
"DE273": 3188,
"DE274": 3189,
"DE274A": 3190,
"DE274B": 3191,
"DE274C": 3192,
"DE274D": 3193,
"DE274E": 3194,
"DE275": 3195,
"DE278": 3196,
"DE278A": 3197,
"DE279": 3198,
"DE28": 3199,
"DE280": 3200,
"DE281": 3201,
"DE282": 3202,
"DE282A": 3203,
"DE282C": 3204,
"DE283": 3205,
"DE283A": 3206,
"DE283B": 3207,
"DE288": 3208,
"DE288A": 3209,
"DE289": 3210,
"DE29": 3211,
"DE290": 3212,
"DE291": 3213,
"DE291A": 3214,
"DE291B": 3215,
"DE291C": 3216,
"DE298": 3217,
"DE299": 3218,
"DE30": 3219,
"DE300": 3220,
"DE301": 3221,
"DE308": 3222,
"DE308A": 3223,
"DE309": 3224,
"DE31": 3225,
"DE310": 3226,
"DE310A": 3227,
"DE311": 3228,
"DE318": 3229,
"DE319": 3230,
"DE32": 3231,
"DE320": 3232,
"DE321": 3233,
"DE328": 3234,
"DE329": 3235,
"DE34": 3236,
"DE340": 3237,
"DE341": 3238,
"DE342": 3239,
"DE343": 3240,
"DE343A": 3241,
"DE343B": 3242,
"DE343C": 3243,
"DE344": 3244,
"DE345": 3245,
"DE345A": 3246,
"DE345B": 3247,
"DE348": 3248,
"DE348A": 3249,
"DE348B": 3250,
"DE348C": 3251,
"DE349": 3252,
"DE35": 3253,
"DE350": 3254,
"DE351": 3255,
"DE358": 3256,
"DE40": 3257,
"DE409": 3258,
"DE41": 3259,
"DE419": 3260,
"DE42": 3261,
"DE429": 3262,
"DE43": 3263,
"DE439": 3264,
"DE439A": 3265,
"DE44": 3266,
"DE440": 3267,
"DE441": 3268,
"DE45": 3269,
"DE459": 3270,
"DE46": 3271,
"DE469": 3272,
"DE47": 3273,
"DE470": 3274,
"DE50": 3275,
"DE500": 3276,
"DE501": 3277,
"DE502": 3278,
"DE503": 3279,
"DE504": 3280,
"DE505": 3281,
"DE506": 3282,
"DE507": 3283,
"DE507A": 3284,
"DE508": 3285,
"DE508B": 3286,
"DE508C": 3287,
"DE509": 3288,
"DE51": 3289,
"DE511": 3290,
"DE511A": 3291,
"DE511B": 3292,
"DE512": 3293,
"DE518": 3294,
"DE519": 3295,
"DE52": 3296,
"DE529": 3297,
"DE529A": 3298,
"DE53": 3299,
"DE530": 3300,
"DE531": 3301,
"DE538": 3302,
"DE538A": 3303,
"DE538B": 3304,
"DE538C": 3305,
"DE538D": 3306,
"DE538E": 3307,
"DE539": 3308,
"DE54": 3309,
"DE549": 3310,
"DE55": 3311,
"DE550": 3312,
"DE559": 3313,
"DE56": 3314,
"DE560": 3315,
"DE561": 3316,
"DE568": 3317,
"DE569": 3318,
"DE58": 3319,
"DE589": 3320,
"DE59": 3321,
"DE599": 3322,
"DE60": 3323,
"DE609": 3324,
"DE61": 3325,
"DE610": 3326,
"DE611": 3327,
"DE612": 3328,
"DE613": 3329,
"DE614": 3330,
"DE615": 3331,
"DE616": 3332,
"DE617": 3333,
"DE618": 3334,
"DE619": 3335,
"DE63": 3336,
"DE630": 3337,
"DE631": 3338,
"DE638": 3339,
"DE639": 3340,
"DE64": 3341,
"DE640": 3342,
"DE641": 3343,
"DE642": 3344,
"DE643": 3345,
"DE648": 3346,
"DE648A": 3347,
"DE648B": 3348,
"DE649": 3349,
"DE65": 3350,
"DE658": 3351,
"DE658A": 3352,
"DE658B": 3353,
"DE659": 3354,
"DE66": 3355,
"DE660": 3356,
"DE660A": 3357,
"DE660B": 3358,
"DE660C": 3359,
"DE660E": 3360,
"DE660F": 3361,
"DE660G": 3362,
"DE660H": 3363,
"DE661": 3364,
"DE662": 3365,
"DE668": 3366,
"DE669": 3367,
"DE67": 3368,
"DE670": 3369,
"DE671": 3370,
"DE672": 3371,
"DE673": 3372,
"DE678": 3373,
"DE68": 3374,
"DE689": 3375,
"DE70": 3376,
"DE700": 3377,
"DE701": 3378,
"DE702": 3379,
"DE702A": 3380,
"DE702B": 3381,
"DE703": 3382,
"DE703A": 3383,
"DE703B": 3384,
"DE703F": 3385,
"DE708": 3386,
"DE708A": 3387,
"DE708B": 3388,
"DE709": 3389,
"DE71": 3390,
"DE710": 3391,
"DE711": 3392,
"DE711A": 3393,
"DE711B": 3394,
"DE711C": 3395,
"DE711D": 3396,
"DE711E": 3397,
"DE712": 3398,
"DE713": 3399,
"DE713A": 3400,
"DE713B": 3401,
"DE713C": 3402,
"DE713C1": 3403,
"DE713C2": 3404,
"DE713C3": 3405,
"DE713C4": 3406,
"DE72": 3407,
"DE720": 3408,
"DE720A": 3409,
"DE720B": 3410,
"DE720C": 3411,
"DE720D": 3412,
"DE720E": 3413,
"DE721": 3414,
"DE721A": 3415,
"DE721B": 3416,
"DE721C": 3417,
"DE721D": 3418,
"DE721E": 3419,
"DE722": 3420,
"DE722A": 3421,
"DE722B": 3422,
"DE722C": 3423,
"DE722D": 3424,
"DE723": 3425,
"DE723A": 3426,
"DE723B": 3427,
"DE723C": 3428,
"DE724": 3429,
"DE725": 3430,
"DE725A": 3431,
"DE725B": 3432,
"DE725C": 3433,
"DE725D": 3434,
"DE728": 3435,
"DE728A": 3436,
"DE728B": 3437,
"DE728E": 3438,
"DE728F": 3439,
"DE729": 3440,
"DE73": 3441,
"DE730": 3442,
"DE731": 3443,
"DE738": 3444,
"DE738A": 3445,
"DE739": 3446,
"DE74": 3447,
"DE740": 3448,
"DE740A": 3449,
"DE740B": 3450,
"DE740C": 3451,
"DE740E": 3452,
"DE740F": 3453,
"DE740G": 3454,
"DE740H": 3455,
"DE740I": 3456,
"DE740J": 3457,
"DE741": 3458,
"DE741B": 3459,
"DE741C": 3460,
"DE741D": 3461,
"DE742": 3462,
"DE742A": 3463,
"DE742B": 3464,
"DE743": 3465,
"DE743A": 3466,
"DE743B": 3467,
"DE744": 3468,
"DE744A": 3469,
"DE744B": 3470,
"DE744C": 3471,
"DE748": 3472,
"DE748A": 3473,
"DE748B": 3474,
"DE748C": 3475,
"DE748D": 3476,
"DE748E": 3477,
"DE748G": 3478,
"DE749": 3479,
"DE75": 3480,
"DE750": 3481,
"DE750A": 3482,
"DE750B": 3483,
"DE750C": 3484,
"DE750D": 3485,
"DE751": 3486,
"DE751A": 3487,
"DE751B": 3488,
"DE751C": 3489,
"DE751D": 3490,
"DE752": 3491,
"DE752A": 3492,
"DE752B": 3493,
"DE752C": 3494,
"DE752D": 3495,
"DE752E": 3496,
"DE752F": 3497,
"DE752G": 3498,
"DE752H": 3499,
"DE753": 3500,
"DE754": 3501,
"DE754B": 3502,
"DE754C": 3503,
"DE754E": 3504,
"DE754F": 3505,
"DE755": 3506,
"DE755A": 3507,
"DE755B": 3508,
"DE756": 3509,
"DE76": 3510,
"DE760": 3511,
"DE760A": 3512,
"DE760B": 3513,
"DE760C": 3514,
"DE761": 3515,
"DE762": 3516,
"DE762A": 3517,
"DE762B": 3518,
"DE762C": 3519,
"DE762E": 3520,
"DE762G": 3521,
"DE762H": 3522,
"DE763": 3523,
"DE768": 3524,
"DE769": 3525,
"DE77": 3526,
"DE770": 3527,
"DE770A": 3528,
"DE770B": 3529,
"DE771": 3530,
"DE771A": 3531,
"DE771B": 3532,
"DE771C": 3533,
"DE771D": 3534,
"DE778": 3535,
"DE779": 3536,
"DE78": 3537,
"DE780": 3538,
"DE780A": 3539,
"DE780B": 3540,
"DE780B1": 3541,
"DE780B2": 3542,
"DE780C": 3543,
"DE780D": 3544,
"DE780E": 3545,
"DE781": 3546,
"DE781A": 3547,
"DE781B": 3548,
"DE781C": 3549,
"DE781D": 3550,
"DE781E": 3551,
"DE782": 3552,
"DE782A": 3553,
"DE782B": 3554,
"DE782C": 3555,
"DE782D": 3556,
"DE782E": 3557,
"DE782F": 3558,
"DE782G": 3559,
"DE782H": 3560,
"DE782J": 3561,
"DE783": 3562,
"DE783A": 3563,
"DE783B": 3564,
"DE783C": 3565,
"DE784": 3566,
"DE784A": 3567,
"DE785": 3568,
"DE786": 3569,
"DE786A": 3570,
"DE786B": 3571,
"DE786C": 3572,
"DE786E": 3573,
"DE786F": 3574,
"DE788": 3575,
"DE788A": 3576,
"DE788B": 3577,
"DE789": 3578,
"DE79": 3579,
"DE790": 3580,
"DE791": 3581,
"DE798": 3582,
"DE798A": 3583,
"DE798B": 3584,
"DE798C": 3585,
"DE799": 3586,
"DE80": 3587,
"DE800": 3588,
"DE801": 3589,
"DE802": 3590,
"DE802A": 3591,
"DE802B": 3592,
"DE802C": 3593,
"DE802D": 3594,
"DE802E": 3595,
"DE802F": 3596,
"DE802G": 3597,
"DE803": 3598,
"DE803A": 3599,
"DE803B": 3600,
"DE804": 3601,
"DE804A": 3602,
"DE805": 3603,
"DE806": 3604,
"DE806A": 3605,
"DE806B": 3606,
"DE807": 3607,
"DE83": 3608,
"DE830": 3609,
"DE830A": 3610,
"DE830B": 3611,
"DE831": 3612,
"DE831A": 3613,
"DE832": 3614,
"DE832A": 3615,
"DE833": 3616,
"DE833A": 3617,
"DE833A1": 3618,
"DE833B": 3619,
"DE834": 3620,
"DE834A": 3621,
"DE834B": 3622,
"DE835": 3623,
"DE835A": 3624,
"DE835B": 3625,
"DE835C": 3626,
"DE835D": 3627,
"DE838": 3628,
"DE839": 3629,
"DE84": 3630,
"DE840": 3631,
"DE841": 3632,
"DE848": 3633,
"DE849": 3634,
"DE85": 3635,
"DE850": 3636,
"DE850A": 3637,
"DE851": 3638,
"DE851A": 3639,
"DE852": 3640,
"DE853": 3641,
"DE853B": 3642,
"DE854": 3643,
"DE858": 3644,
"DE858A": 3645,
"DE859": 3646,
"DE86": 3647,
"DE869": 3648,
"DE869A": 3649,
"DE869B": 3650,
"DE87": 3651,
"DE870": 3652,
"DE870A": 3653,
"DE870B": 3654,
"DE871": 3655,
"DE871A": 3656,
"DE871B": 3657,
"DE872": 3658,
"DE872A": 3659,
"DE872B": 3660,
"DE872C": 3661,
"DE873": 3662,
"DE873A": 3663,
"DE873B": 3664,
"DE874": 3665,
"DE875": 3666,
"DE876": 3667,
"DE877": 3668,
"DE877A": 3669,
"DE878": 3670,
"DE878A": 3671,
"DE878B": 3672,
"DE878C": 3673,
"DE88": 3674,
"DE880": 3675,
"DE880A": 3676,
"DE880B": 3677,
"DE880C": 3678,
"DE881": 3679,
"DE881A": 3680,
"DE882": 3681,
"DE882A": 3682,
"DE882B": 3683,
"DE883": 3684,
"DE888": 3685,
"DE888A": 3686,
"DE888B": 3687,
"DE888C": 3688,
"DE888D": 3689,
"DE889": 3690,
"DE89": 3691,
"DE890": 3692,
"DE890A": 3693,
"DE890B": 3694,
"DE891": 3695,
"DE891A": 3696,
"DE891C": 3697,
"DE892": 3698,
"DE892A": 3699,
"DE892B": 3700,
"DE893": 3701,
"DE893A": 3702,
"DE893B": 3703,
"DE894": 3704,
"DE894A": 3705,
"DE894B": 3706,
"DE895": 3707,
"DE895A": 3708,
"DE895B": 3709,
"DE896": 3710,
"DE898": 3711,
"DE899": 3712,
"DF00": 3713,
"DF000": 3714,
"DF0000": 3715,
"DF0001": 3716,
"DF0002": 3717,
"DF0003": 3718,
"DF0004": 3719,
"DF001": 3720,
"DF0010": 3721,
"DF0011": 3722,
"DF0012": 3723,
"DF0013": 3724,
"DF0014": 3725,
"DF002": 3726,
"DF0020": 3727,
"DF0021": 3728,
"DF0022": 3729,
"DF0023": 3730,
"DF0024": 3731,
"DF009": 3732,
"DF0090": 3733,
"DF0091": 3734,
"DF0092": 3735,
"DF0093": 3736,
"DF0094": 3737,
"DF01": 3738,
"DF010": 3739,
"DF0100": 3740,
"DF0101": 3741,
"DF0102": 3742,
"DF0103": 3743,
"DF0104": 3744,
"DF011": 3745,
"DF0110": 3746,
"DF0111": 3747,
"DF0112": 3748,
"DF0113": 3749,
"DF0114": 3750,
"DF012": 3751,
"DF0120": 3752,
"DF0121": 3753,
"DF0122": 3754,
"DF0123": 3755,
"DF0124": 3756,
"DF013": 3757,
"DF0130": 3758,
"DF0131": 3759,
"DF0132": 3760,
"DF0133": 3761,
"DF0134": 3762,
"DF018": 3763,
"DF0180": 3764,
"DF0181": 3765,
"DF0182": 3766,
"DF0183": 3767,
"DF0184": 3768,
"DF019": 3769,
"DF0190": 3770,
"DF0191": 3771,
"DF0192": 3772,
"DF0193": 3773,
"DF0194": 3774,
"DF02": 3775,
"DF020": 3776,
"DF0200": 3777,
"DF0201": 3778,
"DF0202": 3779,
"DF0203": 3780,
"DF0204": 3781,
"DF021": 3782,
"DF0210": 3783,
"DF0211": 3784,
"DF0212": 3785,
"DF0213": 3786,
"DF0214": 3787,
"DF022": 3788,
"DF0220": 3789,
"DF0221": 3790,
"DF0222": 3791,
"DF0223": 3792,
"DF0224": 3793,
"DF023": 3794,
"DF0230": 3795,
"DF0231": 3796,
"DF0232": 3797,
"DF0233": 3798,
"DF0234": 3799,
"DF024": 3800,
"DF0240": 3801,
"DF0241": 3802,
"DF0242": 3803,
"DF0243": 3804,
"DF0244": 3805,
"DF028": 3806,
"DF0280": 3807,
"DF0281": 3808,
"DF0282": 3809,
"DF0283": 3810,
"DF0284": 3811,
"DF03": 3812,
"DF039": 3813,
"DF0390": 3814,
"DF0391": 3815,
"DF0392": 3816,
"DF0393": 3817,
"DF0394": 3818,
"DF04": 3819,
"DF049": 3820,
"DF05": 3821,
"DF050": 3822,
"DF051": 3823,
"DF058": 3824,
"DF059": 3825,
"DF06": 3826,
"DF060": 3827,
"DF061": 3828,
"DF062": 3829,
"DF063": 3830,
"DF0630": 3831,
"DF0631": 3832,
"DF0632": 3833,
"DF0633": 3834,
"DF064": 3835,
"DF065": 3836,
"DF066": 3837,
"DF067": 3838,
"DF0670": 3839,
"DF0671": 3840,
"DF068": 3841,
"DF069": 3842,
"DF07": 3843,
"DF070": 3844,
"DF071": 3845,
"DF072": 3846,
"DF078": 3847,
"DF079": 3848,
"DF09": 3849,
"DF099": 3850,
"DF10": 3851,
"DF100": 3852,
"DF1000": 3853,
"DF1001": 3854,
"DF1002": 3855,
"DF1003": 3856,
"DF1004": 3857,
"DF1005": 3858,
"DF1006": 3859,
"DF1007": 3860,
"DF101": 3861,
"DF102": 3862,
"DF1020": 3863,
"DF1021": 3864,
"DF1022": 3865,
"DF1023": 3866,
"DF1024": 3867,
"DF1025": 3868,
"DF1026": 3869,
"DF103": 3870,
"DF1030": 3871,
"DF1031": 3872,
"DF104": 3873,
"DF1040": 3874,
"DF1041": 3875,
"DF105": 3876,
"DF1050": 3877,
"DF1051": 3878,
"DF1052": 3879,
"DF1053": 3880,
"DF1054": 3881,
"DF1055": 3882,
"DF1056": 3883,
"DF106": 3884,
"DF107": 3885,
"DF1070": 3886,
"DF1071": 3887,
"DF1072": 3888,
"DF1073": 3889,
"DF1074": 3890,
"DF1075": 3891,
"DF108": 3892,
"DF109": 3893,
"DF11": 3894,
"DF110": 3895,
"DF1100": 3896,
"DF1101": 3897,
"DF1102": 3898,
"DF1103": 3899,
"DF1104": 3900,
"DF1105": 3901,
"DF1106": 3902,
"DF111": 3903,
"DF112": 3904,
"DF1120": 3905,
"DF1121": 3906,
"DF1122": 3907,
"DF1123": 3908,
"DF1124": 3909,
"DF1125": 3910,
"DF1126": 3911,
"DF113": 3912,
"DF1130": 3913,
"DF1131": 3914,
"DF114": 3915,
"DF1140": 3916,
"DF1141": 3917,
"DF115": 3918,
"DF1150": 3919,
"DF1151": 3920,
"DF1152": 3921,
"DF1153": 3922,
"DF1154": 3923,
"DF1155": 3924,
"DF1156": 3925,
"DF117": 3926,
"DF1170": 3927,
"DF1171": 3928,
"DF1172": 3929,
"DF1173": 3930,
"DF1174": 3931,
"DF1175": 3932,
"DF118": 3933,
"DF119": 3934,
"DF12": 3935,
"DF120": 3936,
"DF1200": 3937,
"DF1201": 3938,
"DF1202": 3939,
"DF1203": 3940,
"DF1204": 3941,
"DF1205": 3942,
"DF1206": 3943,
"DF121": 3944,
"DF122": 3945,
"DF1220": 3946,
"DF1221": 3947,
"DF1222": 3948,
"DF1223": 3949,
"DF1224": 3950,
"DF1225": 3951,
"DF1226": 3952,
"DF125": 3953,
"DF1250": 3954,
"DF1251": 3955,
"DF1252": 3956,
"DF1253": 3957,
"DF1254": 3958,
"DF1255": 3959,
"DF1256": 3960,
"DF127": 3961,
"DF1270": 3962,
"DF1271": 3963,
"DF1272": 3964,
"DF1273": 3965,
"DF1274": 3966,
"DF1275": 3967,
"DF128": 3968,
"DF129": 3969,
"DF13": 3970,
"DF130": 3971,
"DF1300": 3972,
"DF1301": 3973,
"DF1302": 3974,
"DF1303": 3975,
"DF1304": 3976,
"DF1305": 3977,
"DF1306": 3978,
"DF131": 3979,
"DF132": 3980,
"DF1320": 3981,
"DF1321": 3982,
"DF1322": 3983,
"DF1323": 3984,
"DF1324": 3985,
"DF1325": 3986,
"DF1326": 3987,
"DF133": 3988,
"DF1330": 3989,
"DF1331": 3990,
"DF134": 3991,
"DF1340": 3992,
"DF1341": 3993,
"DF135": 3994,
"DF1350": 3995,
"DF1351": 3996,
"DF1352": 3997,
"DF1353": 3998,
"DF1354": 3999,
"DF1355": 4000,
"DF1356": 4001,
"DF137": 4002,
"DF1370": 4003,
"DF1371": 4004,
"DF1372": 4005,
"DF1373": 4006,
"DF1374": 4007,
"DF1375": 4008,
"DF138": 4009,
"DF139": 4010,
"DF14": 4011,
"DF140": 4012,
"DF1400": 4013,
"DF1401": 4014,
"DF1402": 4015,
"DF1403": 4016,
"DF1404": 4017,
"DF1405": 4018,
"DF1406": 4019,
"DF141": 4020,
"DF142": 4021,
"DF1420": 4022,
"DF1421": 4023,
"DF1422": 4024,
"DF1423": 4025,
"DF1424": 4026,
"DF1425": 4027,
"DF1426": 4028,
"DF143": 4029,
"DF1430": 4030,
"DF1431": 4031,
"DF145": 4032,
"DF1450": 4033,
"DF1451": 4034,
"DF1452": 4035,
"DF1453": 4036,
"DF1454": 4037,
"DF1455": 4038,
"DF1456": 4039,
"DF147": 4040,
"DF1470": 4041,
"DF1471": 4042,
"DF1472": 4043,
"DF1473": 4044,
"DF1474": 4045,
"DF1475": 4046,
"DF148": 4047,
"DF149": 4048,
"DF15": 4049,
"DF150": 4050,
"DF1500": 4051,
"DF1501": 4052,
"DF1502": 4053,
"DF1503": 4054,
"DF1504": 4055,
"DF1505": 4056,
"DF1506": 4057,
"DF151": 4058,
"DF152": 4059,
"DF1520": 4060,
"DF1521": 4061,
"DF1522": 4062,
"DF1523": 4063,
"DF1524": 4064,
"DF1525": 4065,
"DF1526": 4066,
"DF153": 4067,
"DF1530": 4068,
"DF1531": 4069,
"DF155": 4070,
"DF1550": 4071,
"DF1551": 4072,
"DF1552": 4073,
"DF1553": 4074,
"DF1554": 4075,
"DF1555": 4076,
"DF1556": 4077,
"DF157": 4078,
"DF1570": 4079,
"DF1571": 4080,
"DF1572": 4081,
"DF1573": 4082,
"DF1574": 4083,
"DF1575": 4084,
"DF158": 4085,
"DF159": 4086,
"DF16": 4087,
"DF160": 4088,
"DF1600": 4089,
"DF1601": 4090,
"DF1602": 4091,
"DF1603": 4092,
"DF1604": 4093,
"DF1605": 4094,
"DF1606": 4095,
"DF161": 4096,
"DF162": 4097,
"DF1620": 4098,
"DF1621": 4099,
"DF1622": 4100,
"DF1623": 4101,
"DF1624": 4102,
"DF1625": 4103,
"DF1626": 4104,
"DF165": 4105,
"DF1650": 4106,
"DF1651": 4107,
"DF1652": 4108,
"DF1653": 4109,
"DF1654": 4110,
"DF1655": 4111,
"DF1656": 4112,
"DF167": 4113,
"DF1670": 4114,
"DF1671": 4115,
"DF1672": 4116,
"DF1673": 4117,
"DF1674": 4118,
"DF1675": 4119,
"DF168": 4120,
"DF169": 4121,
"DF17": 4122,
"DF170": 4123,
"DF1700": 4124,
"DF1701": 4125,
"DF1702": 4126,
"DF1703": 4127,
"DF1704": 4128,
"DF1705": 4129,
"DF1706": 4130,
"DF171": 4131,
"DF172": 4132,
"DF1720": 4133,
"DF1721": 4134,
"DF1722": 4135,
"DF1723": 4136,
"DF1724": 4137,
"DF1725": 4138,
"DF1726": 4139,
"DF178": 4140,
"DF179": 4141,
"DF18": 4142,
"DF180": 4143,
"DF1800": 4144,
"DF1801": 4145,
"DF1802": 4146,
"DF1803": 4147,
"DF1804": 4148,
"DF1805": 4149,
"DF1806": 4150,
"DF181": 4151,
"DF182": 4152,
"DF1820": 4153,
"DF1821": 4154,
"DF1822": 4155,
"DF1823": 4156,
"DF1824": 4157,
"DF1825": 4158,
"DF1826": 4159,
"DF185": 4160,
"DF1850": 4161,
"DF1851": 4162,
"DF1852": 4163,
"DF1853": 4164,
"DF1854": 4165,
"DF1855": 4166,
"DF1856": 4167,
"DF186": 4168,
"DF187": 4169,
"DF1870": 4170,
"DF1871": 4171,
"DF1872": 4172,
"DF1873": 4173,
"DF1874": 4174,
"DF1875": 4175,
"DF188": 4176,
"DF189": 4177,
"DF19": 4178,
"DF190": 4179,
"DF1900": 4180,
"DF1901": 4181,
"DF1902": 4182,
"DF1903": 4183,
"DF1904": 4184,
"DF1905": 4185,
"DF1906": 4186,
"DF191": 4187,
"DF192": 4188,
"DF1920": 4189,
"DF1921": 4190,
"DF1922": 4191,
"DF1923": 4192,
"DF1924": 4193,
"DF1925": 4194,
"DF1926": 4195,
"DF193": 4196,
"DF1930": 4197,
"DF1931": 4198,
"DF194": 4199,
"DF1940": 4200,
"DF1941": 4201,
"DF195": 4202,
"DF1950": 4203,
"DF1951": 4204,
"DF1952": 4205,
"DF1953": 4206,
"DF1954": 4207,
"DF1955": 4208,
"DF1956": 4209,
"DF196": 4210,
"DF197": 4211,
"DF1970": 4212,
"DF1971": 4213,
"DF1972": 4214,
"DF1973": 4215,
"DF1974": 4216,
"DF1975": 4217,
"DF198": 4218,
"DF199": 4219,
"DF20": 4220,
"DF200": 4221,
"DF2000": 4222,
"DF2001": 4223,
"DF2002": 4224,
"DF2003": 4225,
"DF2004": 4226,
"DF2005": 4227,
"DF2008": 4228,
"DF2009": 4229,
"DF201": 4230,
"DF2010": 4231,
"DF2011": 4232,
"DF2012": 4233,
"DF2013": 4234,
"DF2014": 4235,
"DF2015": 4236,
"DF2018": 4237,
"DF2019": 4238,
"DF202": 4239,
"DF2020": 4240,
"DF2021": 4241,
"DF2022": 4242,
"DF2023": 4243,
"DF2024": 4244,
"DF2025": 4245,
"DF2028": 4246,
"DF2029": 4247,
"DF203": 4248,
"DF2030": 4249,
"DF2031": 4250,
"DF2032": 4251,
"DF2033": 4252,
"DF2034": 4253,
"DF2035": 4254,
"DF2038": 4255,
"DF2039": 4256,
"DF204": 4257,
"DF2040": 4258,
"DF2041": 4259,
"DF2042": 4260,
"DF2043": 4261,
"DF2044": 4262,
"DF2045": 4263,
"DF2048": 4264,
"DF2049": 4265,
"DF205": 4266,
"DF2050": 4267,
"DF2051": 4268,
"DF2052": 4269,
"DF2053": 4270,
"DF2054": 4271,
"DF2055": 4272,
"DF2058": 4273,
"DF2059": 4274,
"DF206": 4275,
"DF2060": 4276,
"DF2061": 4277,
"DF2062": 4278,
"DF2063": 4279,
"DF2064": 4280,
"DF2065": 4281,
"DF2068": 4282,
"DF2069": 4283,
"DF208": 4284,
"DF2080": 4285,
"DF2081": 4286,
"DF2082": 4287,
"DF2083": 4288,
"DF2084": 4289,
"DF2085": 4290,
"DF2088": 4291,
"DF2089": 4292,
"DF209": 4293,
"DF2090": 4294,
"DF2091": 4295,
"DF2092": 4296,
"DF2093": 4297,
"DF2094": 4298,
"DF2095": 4299,
"DF2098": 4300,
"DF2099": 4301,
"DF21": 4302,
"DF219": 4303,
"DF22": 4304,
"DF220": 4305,
"DF228": 4306,
"DF229": 4307,
"DF23": 4308,
"DF230": 4309,
"DF2300": 4310,
"DF2301": 4311,
"DF231": 4312,
"DF2310": 4313,
"DF2311": 4314,
"DF232": 4315,
"DF2320": 4316,
"DF2321": 4317,
"DF233": 4318,
"DF2330": 4319,
"DF2331": 4320,
"DF238": 4321,
"DF2380": 4322,
"DF2381": 4323,
"DF239": 4324,
"DF2390": 4325,
"DF2391": 4326,
"DF24": 4327,
"DF249": 4328,
"DF25": 4329,
"DF250": 4330,
"DF2500": 4331,
"DF2501": 4332,
"DF251": 4333,
"DF2510": 4334,
"DF2511": 4335,
"DF252": 4336,
"DF2520": 4337,
"DF2521": 4338,
"DF258": 4339,
"DF2580": 4340,
"DF2581": 4341,
"DF259": 4342,
"DF2590": 4343,
"DF2591": 4344,
"DF28": 4345,
"DF289": 4346,
"DF29": 4347,
"DF299": 4348,
"DF30": 4349,
"DF300": 4350,
"DF301": 4351,
"DF302": 4352,
"DF3020": 4353,
"DF3021": 4354,
"DF308": 4355,
"DF309": 4356,
"DF309A": 4357,
"DF31": 4358,
"DF310": 4359,
"DF311": 4360,
"DF312": 4361,
"DF3120": 4362,
"DF3121": 4363,
"DF313": 4364,
"DF314": 4365,
"DF315": 4366,
"DF3150": 4367,
"DF3151": 4368,
"DF316": 4369,
"DF317": 4370,
"DF318": 4371,
"DF319": 4372,
"DF32": 4373,
"DF320": 4374,
"DF3200": 4375,
"DF3201": 4376,
"DF321": 4377,
"DF3210": 4378,
"DF3211": 4379,
"DF322": 4380,
"DF323": 4381,
"DF3230": 4382,
"DF3231": 4383,
"DF328": 4384,
"DF329": 4385,
"DF33": 4386,
"DF330": 4387,
"DF3300": 4388,
"DF3301": 4389,
"DF331": 4390,
"DF3310": 4391,
"DF3311": 4392,
"DF332": 4393,
"DF333": 4394,
"DF3330": 4395,
"DF3331": 4396,
"DF334": 4397,
"DF338": 4398,
"DF339": 4399,
"DF34": 4400,
"DF340": 4401,
"DF3400": 4402,
"DF3401": 4403,
"DF341": 4404,
"DF3410": 4405,
"DF3411": 4406,
"DF348": 4407,
"DF349": 4408,
"DF38": 4409,
"DF380": 4410,
"DF3800": 4411,
"DF381": 4412,
"DF3810": 4413,
"DF388": 4414,
"DF39": 4415,
"DF399": 4416,
"DF40": 4417,
"DF400": 4418,
"DF4000": 4419,
"DF4001": 4420,
"DF401": 4421,
"DF402": 4422,
"DF402A": 4423,
"DF408": 4424,
"DF408A": 4425,
"DF409": 4426,
"DF41": 4427,
"DF410": 4428,
"DF4100": 4429,
"DF4101": 4430,
"DF411": 4431,
"DF412": 4432,
"DF413": 4433,
"DF418": 4434,
"DF418A": 4435,
"DF418B": 4436,
"DF419": 4437,
"DF42": 4438,
"DF420": 4439,
"DF421": 4440,
"DF422": 4441,
"DF428": 4442,
"DF429": 4443,
"DF43": 4444,
"DF430": 4445,
"DF4300": 4446,
"DF4301": 4447,
"DF4302": 4448,
"DF431": 4449,
"DF432": 4450,
"DF4320": 4451,
"DF4321": 4452,
"DF4322": 4453,
"DF4323": 4454,
"DF4324": 4455,
"DF4325": 4456,
"DF4328": 4457,
"DF438": 4458,
"DF439": 4459,
"DF44": 4460,
"DF440": 4461,
"DF441": 4462,
"DF442": 4463,
"DF443": 4464,
"DF444": 4465,
"DF445": 4466,
"DF446": 4467,
"DF446A": 4468,
"DF447": 4469,
"DF448": 4470,
"DF4480": 4471,
"DF4481": 4472,
"DF4482": 4473,
"DF4488": 4474,
"DF4488A": 4475,
"DF449": 4476,
"DF45": 4477,
"DF450": 4478,
"DF451": 4479,
"DF452": 4480,
"DF452A": 4481,
"DF453": 4482,
"DF4530": 4483,
"DF4531": 4484,
"DF4532": 4485,
"DF4533": 4486,
"DF4534": 4487,
"DF4538": 4488,
"DF454": 4489,
"DF458": 4490,
"DF459": 4491,
"DF48": 4492,
"DF480": 4493,
"DF481": 4494,
"DF488": 4495,
"DF489": 4496,
"DF50": 4497,
"DF500": 4498,
"DF501": 4499,
"DF502": 4500,
"DF503": 4501,
"DF504": 4502,
"DF505": 4503,
"DF508": 4504,
"DF508A": 4505,
"DF509": 4506,
"DF51": 4507,
"DF510": 4508,
"DF5100": 4509,
"DF5101": 4510,
"DF5102": 4511,
"DF5103": 4512,
"DF5104": 4513,
"DF5105": 4514,
"DF511": 4515,
"DF5110": 4516,
"DF5111": 4517,
"DF512": 4518,
"DF5120": 4519,
"DF5121": 4520,
"DF5122": 4521,
"DF5123": 4522,
"DF513": 4523,
"DF514": 4524,
"DF515": 4525,
"DF518": 4526,
"DF518A": 4527,
"DF519": 4528,
"DF52": 4529,
"DF520": 4530,
"DF521": 4531,
"DF5210": 4532,
"DF5211": 4533,
"DF522": 4534,
"DF522A": 4535,
"DF523": 4536,
"DF524": 4537,
"DF525": 4538,
"DF526": 4539,
"DF527": 4540,
"DF528": 4541,
"DF529": 4542,
"DF53": 4543,
"DF530": 4544,
"DF530A": 4545,
"DF531": 4546,
"DF538": 4547,
"DF539": 4548,
"DF54": 4549,
"DF549": 4550,
"DF55": 4551,
"DF550": 4552,
"DF551": 4553,
"DF552": 4554,
"DF553": 4555,
"DF554": 4556,
"DF555": 4557,
"DF556": 4558,
"DF558": 4559,
"DF559": 4560,
"DF59": 4561,
"DF599": 4562,
"DF60": 4563,
"DF600": 4564,
"DF601": 4565,
"DF602": 4566,
"DF603": 4567,
"DF6030": 4568,
"DF6031": 4569,
"DF604": 4570,
"DF605": 4571,
"DF606": 4572,
"DF607": 4573,
"DF608": 4574,
"DF609": 4575,
"DF61": 4576,
"DF610": 4577,
"DF611": 4578,
"DF62": 4579,
"DF620": 4580,
"DF621": 4581,
"DF628": 4582,
"DF629": 4583,
"DF63": 4584,
"DF630": 4585,
"DF631": 4586,
"DF632": 4587,
"DF633": 4588,
"DF638": 4589,
"DF639": 4590,
"DF65": 4591,
"DF650": 4592,
"DF652": 4593,
"DF653": 4594,
"DF654": 4595,
"DF656": 4596,
"DF658": 4597,
"DF659": 4598,
"DF66": 4599,
"DF660": 4600,
"DF661": 4601,
"DF662": 4602,
"DF668": 4603,
"DF669": 4604,
"DF68": 4605,
"DF680": 4606,
"DF681": 4607,
"DF681A": 4608,
"DF681B": 4609,
"DF681C": 4610,
"DF681D": 4611,
"DF688": 4612,
"DF69": 4613,
"DF699": 4614,
"DF70": 4615,
"DF700": 4616,
"DF701": 4617,
"DF708": 4618,
"DF709": 4619,
"DF71": 4620,
"DF710": 4621,
"DF711": 4622,
"DF718": 4623,
"DF719": 4624,
"DF72": 4625,
"DF720": 4626,
"DF721": 4627,
"DF728": 4628,
"DF729": 4629,
"DF73": 4630,
"DF730": 4631,
"DF731": 4632,
"DF738": 4633,
"DF739": 4634,
"DF78": 4635,
"DF780": 4636,
"DF781": 4637,
"DF788": 4638,
"DF789": 4639,
"DF79": 4640,
"DF790": 4641,
"DF791": 4642,
"DF798": 4643,
"DF799": 4644,
"DF80": 4645,
"DF800": 4646,
"DF801": 4647,
"DF802": 4648,
"DF803": 4649,
"DF808": 4650,
"DF809": 4651,
"DF809A": 4652,
"DF81": 4653,
"DF810": 4654,
"DF811": 4655,
"DF812": 4656,
"DF813": 4657,
"DF818": 4658,
"DF819": 4659,
"DF82": 4660,
"DF829": 4661,
"DF829A": 4662,
"DF83": 4663,
"DF839": 4664,
"DF84": 4665,
"DF840": 4666,
"DF841": 4667,
"DF8410": 4668,
"DF8411": 4669,
"DF8412": 4670,
"DF842": 4671,
"DF843": 4672,
"DF844": 4673,
"DF845": 4674,
"DF848": 4675,
"DF849": 4676,
"DF88": 4677,
"DF889": 4678,
"DF89": 4679,
"DF899": 4680,
"DF90": 4681,
"DF900": 4682,
"DF901": 4683,
"DF908": 4684,
"DF909": 4685,
"DF91": 4686,
"DF910": 4687,
"DF911": 4688,
"DF912": 4689,
"DF913": 4690,
"DF918": 4691,
"DF919": 4692,
"DF92": 4693,
"DF920": 4694,
"DF928": 4695,
"DF929": 4696,
"DF93": 4697,
"DF930": 4698,
"DF931": 4699,
"DF932": 4700,
"DF933": 4701,
"DF938": 4702,
"DF9380": 4703,
"DF939": 4704,
"DF94": 4705,
"DF940": 4706,
"DF941": 4707,
"DF942": 4708,
"DF948": 4709,
"DF949": 4710,
"DF95": 4711,
"DF950": 4712,
"DF951": 4713,
"DF952": 4714,
"DF958": 4715,
"DF959": 4716,
"DF98": 4717,
"DF980": 4718,
"DF9800": 4719,
"DF9801": 4720,
"DF9802": 4721,
"DF981": 4722,
"DF9810": 4723,
"DF9811": 4724,
"DF9812": 4725,
"DF982": 4726,
"DF983": 4727,
"DF984": 4728,
"DF9840": 4729,
"DF9841": 4730,
"DF9842": 4731,
"DF985": 4732,
"DF986": 4733,
"DF988": 4734,
"DF988A": 4735,
"DF988B": 4736,
"DF988C": 4737,
"DF989": 4738,
"DF99": 4739,
"DF999": 4740,
"DG00": 4741,
"DG000": 4742,
"DG001": 4743,
"DG002": 4744,
"DG003": 4745,
"DG008": 4746,
"DG008A": 4747,
"DG008B": 4748,
"DG009": 4749,
"DG009A": 4750,
"DG01": 4751,
"DG019": 4752,
"DG02": 4753,
"DG020": 4754,
"DG021": 4755,
"DG028": 4756,
"DG03": 4757,
"DG030": 4758,
"DG031": 4759,
"DG032": 4760,
"DG038": 4761,
"DG039": 4762,
"DG04": 4763,
"DG040": 4764,
"DG040A": 4765,
"DG041": 4766,
"DG042": 4767,
"DG042A": 4768,
"DG042B": 4769,
"DG048": 4770,
"DG048A": 4771,
"DG048B": 4772,
"DG048C": 4773,
"DG049": 4774,
"DG049A": 4775,
"DG049B": 4776,
"DG049C": 4777,
"DG049D": 4778,
"DG05": 4779,
"DG050": 4780,
"DG050P": 4781,
"DG050R": 4782,
"DG050S": 4783,
"DG051": 4784,
"DG051U": 4785,
"DG051V": 4786,
"DG051X": 4787,
"DG052": 4788,
"DG052K": 4789,
"DG052L": 4790,
"DG052M": 4791,
"DG052N": 4792,
"DG058": 4793,
"DG06": 4794,
"DG060": 4795,
"DG060A": 4796,
"DG060B": 4797,
"DG060C": 4798,
"DG060E": 4799,
"DG060F": 4800,
"DG060G": 4801,
"DG060H": 4802,
"DG060I": 4803,
"DG060J": 4804,
"DG060K": 4805,
"DG060L": 4806,
"DG061": 4807,
"DG061A": 4808,
"DG061C": 4809,
"DG061E": 4810,
"DG061F": 4811,
"DG061G": 4812,
"DG062": 4813,
"DG062A": 4814,
"DG062C": 4815,
"DG07": 4816,
"DG079": 4817,
"DG079A": 4818,
"DG079B": 4819,
"DG079J": 4820,
"DG079K": 4821,
"DG08": 4822,
"DG089": 4823,
"DG09": 4824,
"DG099": 4825,
"DG10": 4826,
"DG109": 4827,
"DG11": 4828,
"DG110": 4829,
"DG111": 4830,
"DG111A": 4831,
"DG111B": 4832,
"DG111C": 4833,
"DG112": 4834,
"DG113": 4835,
"DG113A": 4836,
"DG114": 4837,
"DG118": 4838,
"DG119": 4839,
"DG12": 4840,
"DG120": 4841,
"DG121": 4842,
"DG121A": 4843,
"DG121B": 4844,
"DG121C": 4845,
"DG121D": 4846,
"DG121E": 4847,
"DG121F": 4848,
"DG122": 4849,
"DG122A": 4850,
"DG122B": 4851,
"DG122C": 4852,
"DG122D": 4853,
"DG122E": 4854,
"DG122F": 4855,
"DG122G": 4856,
"DG128": 4857,
"DG129": 4858,
"DG13": 4859,
"DG130": 4860,
"DG131": 4861,
"DG132": 4862,
"DG138": 4863,
"DG14": 4864,
"DG149": 4865,
"DG20": 4866,
"DG209": 4867,
"DG209A": 4868,
"DG21": 4869,
"DG210": 4870,
"DG211": 4871,
"DG212": 4872,
"DG213": 4873,
"DG214": 4874,
"DG218": 4875,
"DG218A": 4876,
"DG219": 4877,
"DG22": 4878,
"DG229": 4879,
"DG23": 4880,
"DG230": 4881,
"DG231": 4882,
"DG232": 4883,
"DG233": 4884,
"DG238": 4885,
"DG239": 4886,
"DG24": 4887,
"DG240": 4888,
"DG240A": 4889,
"DG241": 4890,
"DG242": 4891,
"DG243": 4892,
"DG244": 4893,
"DG245": 4894,
"DG248": 4895,
"DG249": 4896,
"DG25": 4897,
"DG250": 4898,
"DG251": 4899,
"DG252": 4900,
"DG252A": 4901,
"DG253": 4902,
"DG253A": 4903,
"DG254": 4904,
"DG255": 4905,
"DG255A": 4906,
"DG256": 4907,
"DG256A": 4908,
"DG258": 4909,
"DG258A": 4910,
"DG258D": 4911,
"DG259": 4912,
"DG26": 4913,
"DG269": 4914,
"DG30": 4915,
"DG300": 4916,
"DG301": 4917,
"DG308": 4918,
"DG309": 4919,
"DG31": 4920,
"DG310": 4921,
"DG310A": 4922,
"DG310B": 4923,
"DG311": 4924,
"DG312": 4925,
"DG312A": 4926,
"DG312B": 4927,
"DG312C": 4928,
"DG312D": 4929,
"DG312E": 4930,
"DG318": 4931,
"DG318A": 4932,
"DG318B": 4933,
"DG318C": 4934,
"DG318E": 4935,
"DG319": 4936,
"DG32": 4937,
"DG320": 4938,
"DG328": 4939,
"DG35": 4940,
"DG359": 4941,
"DG359A": 4942,
"DG359B": 4943,
"DG359C": 4944,
"DG36": 4945,
"DG360": 4946,
"DG361": 4947,
"DG368": 4948,
"DG369": 4949,
"DG37": 4950,
"DG370": 4951,
"DG370A": 4952,
"DG371": 4953,
"DG372": 4954,
"DG373": 4955,
"DG373A": 4956,
"DG374": 4957,
"DG375": 4958,
"DG378": 4959,
"DG379": 4960,
"DG40": 4961,
"DG400": 4962,
"DG400A": 4963,
"DG400B": 4964,
"DG400D": 4965,
"DG401": 4966,
"DG401A": 4967,
"DG401B": 4968,
"DG401C": 4969,
"DG401D": 4970,
"DG401E": 4971,
"DG402": 4972,
"DG402A": 4973,
"DG402B": 4974,
"DG402C": 4975,
"DG402D": 4976,
"DG402E": 4977,
"DG403": 4978,
"DG403A": 4979,
"DG403B": 4980,
"DG403C": 4981,
"DG403D": 4982,
"DG403E": 4983,
"DG403F": 4984,
"DG403G": 4985,
"DG403P": 4986,
"DG404": 4987,
"DG404A": 4988,
"DG404B": 4989,
"DG404C": 4990,
"DG404D": 4991,
"DG404E": 4992,
"DG404H": 4993,
"DG405": 4994,
"DG405K": 4995,
"DG405L": 4996,
"DG406": 4997,
"DG407": 4998,
"DG408": 4999,
"DG408A": 5000,
"DG408B": 5001,
"DG409": 5002,
"DG41": 5003,
"DG410": 5004,
"DG411": 5005,
"DG412": 5006,
"DG418": 5007,
"DG419": 5008,
"DG43": 5009,
"DG430": 5010,
"DG431": 5011,
"DG431A": 5012,
"DG431B": 5013,
"DG431C": 5014,
"DG432": 5015,
"DG433": 5016,
"DG433A": 5017,
"DG433B": 5018,
"DG438": 5019,
"DG438A": 5020,
"DG438B": 5021,
"DG438C": 5022,
"DG439": 5023,
"DG44": 5024,
"DG440": 5025,
"DG440A": 5026,
"DG440B": 5027,
"DG441": 5028,
"DG442": 5029,
"DG443": 5030,
"DG444": 5031,
"DG448": 5032,
"DG45": 5033,
"DG450": 5034,
"DG450A": 5035,
"DG450B": 5036,
"DG451": 5037,
"DG452": 5038,
"DG452A": 5039,
"DG453": 5040,
"DG454": 5041,
"DG458": 5042,
"DG459": 5043,
"DG459A": 5044,
"DG46": 5045,
"DG460": 5046,
"DG461": 5047,
"DG462": 5048,
"DG463": 5049,
"DG463A": 5050,
"DG463B": 5051,
"DG463C": 5052,
"DG463D": 5053,
"DG463E": 5054,
"DG463F": 5055,
"DG464": 5056,
"DG465": 5057,
"DG466": 5058,
"DG467": 5059,
"DG468": 5060,
"DG47": 5061,
"DG470": 5062,
"DG4700": 5063,
"DG4702": 5064,
"DG4703": 5065,
"DG471": 5066,
"DG4710": 5067,
"DG4711": 5068,
"DG4712": 5069,
"DG4713": 5070,
"DG4714": 5071,
"DG4715": 5072,
"DG472": 5073,
"DG4720": 5074,
"DG4721": 5075,
"DG4722": 5076,
"DG4723": 5077,
"DG4724": 5078,
"DG4725": 5079,
"DG4726": 5080,
"DG473": 5081,
"DG4730": 5082,
"DG4731": 5083,
"DG4732": 5084,
"DG4734": 5085,
"DG4735": 5086,
"DG4735A": 5087,
"DG4735B": 5088,
"DG4735C": 5089,
"DG4735D": 5090,
"DG4735E": 5091,
"DG4736": 5092,
"DG4739": 5093,
"DG474": 5094,
"DG4741": 5095,
"DG4742": 5096,
"DG4743": 5097,
"DG4744": 5098,
"DG475": 5099,
"DG4751": 5100,
"DG4752": 5101,
"DG4753": 5102,
"DG4754": 5103,
"DG4755": 5104,
"DG4756": 5105,
"DG4757": 5106,
"DG4759": 5107,
"DG475A": 5108,
"DG475B": 5109,
"DG475W": 5110,
"DG476": 5111,
"DG4760": 5112,
"DG4761": 5113,
"DG4762": 5114,
"DG4763": 5115,
"DG4764": 5116,
"DG4765": 5117,
"DG4766": 5118,
"DG4767": 5119,
"DG478": 5120,
"DG478B": 5121,
"DG479": 5122,
"DG50": 5123,
"DG500": 5124,
"DG500A": 5125,
"DG500B": 5126,
"DG500C": 5127,
"DG500D": 5128,
"DG500E": 5129,
"DG501": 5130,
"DG508": 5131,
"DG509": 5132,
"DG51": 5133,
"DG510": 5134,
"DG511": 5135,
"DG512": 5136,
"DG513": 5137,
"DG514": 5138,
"DG518": 5139,
"DG518A": 5140,
"DG518B": 5141,
"DG518C": 5142,
"DG518D": 5143,
"DG519": 5144,
"DG52": 5145,
"DG520": 5146,
"DG521": 5147,
"DG521A": 5148,
"DG522": 5149,
"DG523": 5150,
"DG527": 5151,
"DG528": 5152,
"DG529": 5153,
"DG53": 5154,
"DG530": 5155,
"DG530A": 5156,
"DG530B": 5157,
"DG530C": 5158,
"DG531": 5159,
"DG532": 5160,
"DG533": 5161,
"DG538": 5162,
"DG54": 5163,
"DG540": 5164,
"DG540A": 5165,
"DG540B": 5166,
"DG540C": 5167,
"DG541": 5168,
"DG542": 5169,
"DG543": 5170,
"DG544": 5171,
"DG545": 5172,
"DG546": 5173,
"DG547": 5174,
"DG547A": 5175,
"DG548": 5176,
"DG549": 5177,
"DG55": 5178,
"DG550": 5179,
"DG550A": 5180,
"DG550B": 5181,
"DG551": 5182,
"DG551A": 5183,
"DG551B": 5184,
"DG552": 5185,
"DG552A": 5186,
"DG552B": 5187,
"DG553": 5188,
"DG558": 5189,
"DG56": 5190,
"DG560": 5191,
"DG561": 5192,
"DG562": 5193,
"DG562A": 5194,
"DG563": 5195,
"DG564": 5196,
"DG568": 5197,
"DG568A": 5198,
"DG569": 5199,
"DG57": 5200,
"DG570": 5201,
"DG571": 5202,
"DG571A": 5203,
"DG572": 5204,
"DG573": 5205,
"DG574": 5206,
"DG575": 5207,
"DG576": 5208,
"DG576A": 5209,
"DG578": 5210,
"DG578A": 5211,
"DG579": 5212,
"DG58": 5213,
"DG580": 5214,
"DG587": 5215,
"DG588": 5216,
"DG589": 5217,
"DG59": 5218,
"DG590": 5219,
"DG598": 5220,
"DG60": 5221,
"DG600": 5222,
"DG600A": 5223,
"DG600B": 5224,
"DG600C": 5225,
"DG600D": 5226,
"DG600E": 5227,
"DG600F": 5228,
"DG600G": 5229,
"DG600I": 5230,
"DG601": 5231,
"DG602": 5232,
"DG603": 5233,
"DG608": 5234,
"DG608A": 5235,
"DG608B": 5236,
"DG608C": 5237,
"DG608D": 5238,
"DG609": 5239,
"DG61": 5240,
"DG610": 5241,
"DG611": 5242,
"DG618": 5243,
"DG619": 5244,
"DG62": 5245,
"DG620": 5246,
"DG621": 5247,
"DG622": 5248,
"DG628": 5249,
"DG628A": 5250,
"DG629": 5251,
"DG63": 5252,
"DG630": 5253,
"DG631": 5254,
"DG632": 5255,
"DG633": 5256,
"DG634": 5257,
"DG635": 5258,
"DG636": 5259,
"DG638": 5260,
"DG64": 5261,
"DG649": 5262,
"DG649A": 5263,
"DG70": 5264,
"DG700": 5265,
"DG701": 5266,
"DG702": 5267,
"DG708": 5268,
"DG709": 5269,
"DG71": 5270,
"DG710": 5271,
"DG710A": 5272,
"DG710B": 5273,
"DG710C": 5274,
"DG710D": 5275,
"DG710E": 5276,
"DG710F": 5277,
"DG710G": 5278,
"DG710H": 5279,
"DG710I": 5280,
"DG710J": 5281,
"DG711": 5282,
"DG711A": 5283,
"DG711B": 5284,
"DG711C": 5285,
"DG711D": 5286,
"DG711E": 5287,
"DG711F": 5288,
"DG711G": 5289,
"DG711I": 5290,
"DG711J": 5291,
"DG711K": 5292,
"DG712": 5293,
"DG712A": 5294,
"DG712B": 5295,
"DG712C": 5296,
"DG712D": 5297,
"DG713": 5298,
"DG718": 5299,
"DG719": 5300,
"DG72": 5301,
"DG720": 5302,
"DG721": 5303,
"DG722": 5304,
"DG723": 5305,
"DG723A": 5306,
"DG723B": 5307,
"DG723C": 5308,
"DG723D": 5309,
"DG724": 5310,
"DG728": 5311,
"DG729": 5312,
"DG73": 5313,
"DG730": 5314,
"DG731": 5315,
"DG732": 5316,
"DG733": 5317,
"DG734": 5318,
"DG734C": 5319,
"DG735": 5320,
"DG736": 5321,
"DG737": 5322,
"DG80": 5323,
"DG800": 5324,
"DG801": 5325,
"DG802": 5326,
"DG803": 5327,
"DG803A": 5328,
"DG803B": 5329,
"DG804": 5330,
"DG808": 5331,
"DG808A": 5332,
"DG809": 5333,
"DG81": 5334,
"DG810": 5335,
"DG811": 5336,
"DG819": 5337,
"DG82": 5338,
"DG820": 5339,
"DG821": 5340,
"DG822": 5341,
"DG822A": 5342,
"DG823": 5343,
"DG824": 5344,
"DG825": 5345,
"DG83": 5346,
"DG830": 5347,
"DG831": 5348,
"DG832": 5349,
"DG833": 5350,
"DG834": 5351,
"DG834A": 5352,
"DG834B": 5353,
"DG835": 5354,
"DG838": 5355,
"DG838A": 5356,
"DG839": 5357,
"DG90": 5358,
"DG900": 5359,
"DG900A": 5360,
"DG901": 5361,
"DG902": 5362,
"DG904": 5363,
"DG908": 5364,
"DG909": 5365,
"DG909A": 5366,
"DG909B": 5367,
"DG91": 5368,
"DG910": 5369,
"DG911": 5370,
"DG912": 5371,
"DG913": 5372,
"DG918": 5373,
"DG919": 5374,
"DG92": 5375,
"DG929": 5376,
"DG929A": 5377,
"DG93": 5378,
"DG930": 5379,
"DG930A": 5380,
"DG930B": 5381,
"DG931": 5382,
"DG932": 5383,
"DG933": 5384,
"DG933A": 5385,
"DG934": 5386,
"DG935": 5387,
"DG935A": 5388,
"DG935B": 5389,
"DG935C": 5390,
"DG936": 5391,
"DG937": 5392,
"DG938": 5393,
"DG938A": 5394,
"DG939": 5395,
"DG94": 5396,
"DG940": 5397,
"DG941": 5398,
"DG942": 5399,
"DG943": 5400,
"DG948": 5401,
"DG95": 5402,
"DG950": 5403,
"DG950A": 5404,
"DG950B": 5405,
"DG951": 5406,
"DG951A": 5407,
"DG951B": 5408,
"DG951C": 5409,
"DG951D": 5410,
"DG951E": 5411,
"DG951F": 5412,
"DG951G": 5413,
"DG952": 5414,
"DG952A": 5415,
"DG958": 5416,
"DG958A": 5417,
"DG958B": 5418,
"DG958C": 5419,
"DG959": 5420,
"DG96": 5421,
"DG960": 5422,
"DG960A": 5423,
"DG960B": 5424,
"DG961": 5425,
"DG961A": 5426,
"DG968": 5427,
"DG969": 5428,
"DG97": 5429,
"DG970": 5430,
"DG971": 5431,
"DG972": 5432,
"DG978": 5433,
"DG978A": 5434,
"DG979": 5435,
"DG98": 5436,
"DG989": 5437,
"DG99": 5438,
"DG990": 5439,
"DG991": 5440,
"DG992": 5441,
"DG998": 5442,
"DH00": 5443,
"DH000": 5444,
"DH000A": 5445,
"DH000B": 5446,
"DH000C": 5447,
"DH000D": 5448,
"DH001": 5449,
"DH01": 5450,
"DH010": 5451,
"DH011": 5452,
"DH011A": 5453,
"DH011B": 5454,
"DH011C": 5455,
"DH011D": 5456,
"DH011E": 5457,
"DH018": 5458,
"DH019": 5459,
"DH02": 5460,
"DH020": 5461,
"DH020A": 5462,
"DH020B": 5463,
"DH021": 5464,
"DH022": 5465,
"DH023": 5466,
"DH024": 5467,
"DH025": 5468,
"DH025A": 5469,
"DH025B": 5470,
"DH025D": 5471,
"DH026": 5472,
"DH027": 5473,
"DH027A": 5474,
"DH027B": 5475,
"DH027C": 5476,
"DH028": 5477,
"DH028A": 5478,
"DH028B": 5479,
"DH028C": 5480,
"DH029": 5481,
"DH03": 5482,
"DH030": 5483,
"DH031": 5484,
"DH038": 5485,
"DH04": 5486,
"DH040": 5487,
"DH041": 5488,
"DH041A": 5489,
"DH041B": 5490,
"DH041C": 5491,
"DH041D": 5492,
"DH041E": 5493,
"DH041F": 5494,
"DH042": 5495,
"DH043": 5496,
"DH043A": 5497,
"DH043B": 5498,
"DH043C": 5499,
"DH043D": 5500,
"DH043E": 5501,
"DH043F": 5502,
"DH044": 5503,
"DH044A": 5504,
"DH044C": 5505,
"DH045": 5506,
"DH045A": 5507,
"DH045B": 5508,
"DH045C": 5509,
"DH045D": 5510,
"DH045E": 5511,
"DH045F": 5512,
"DH046": 5513,
"DH046A": 5514,
"DH048": 5515,
"DH049": 5516,
"DH05": 5517,
"DH050": 5518,
"DH050A": 5519,
"DH050B": 5520,
"DH050C": 5521,
"DH050D": 5522,
"DH050E": 5523,
"DH050F": 5524,
"DH051": 5525,
"DH051A": 5526,
"DH052": 5527,
"DH052A": 5528,
"DH052B": 5529,
"DH053": 5530,
"DH053A": 5531,
"DH053B": 5532,
"DH053D": 5533,
"DH054": 5534,
"DH055": 5535,
"DH055B": 5536,
"DH058": 5537,
"DH058A": 5538,
"DH058B": 5539,
"DH059": 5540,
"DH06": 5541,
"DH060": 5542,
"DH061": 5543,
"DH062": 5544,
"DH063": 5545,
"DH10": 5546,
"DH100": 5547,
"DH101": 5548,
"DH102": 5549,
"DH102A": 5550,
"DH102B": 5551,
"DH102C": 5552,
"DH103": 5553,
"DH104": 5554,
"DH104A": 5555,
"DH104A0": 5556,
"DH104A1": 5557,
"DH104B": 5558,
"DH104C": 5559,
"DH104D": 5560,
"DH105": 5561,
"DH106": 5562,
"DH108": 5563,
"DH109": 5564,
"DH11": 5565,
"DH110": 5566,
"DH111": 5567,
"DH111B": 5568,
"DH111C": 5569,
"DH111D": 5570,
"DH111F": 5571,
"DH111G": 5572,
"DH112": 5573,
"DH112A": 5574,
"DH113": 5575,
"DH113A": 5576,
"DH114": 5577,
"DH114A": 5578,
"DH114B": 5579,
"DH114C": 5580,
"DH114D": 5581,
"DH118": 5582,
"DH118A": 5583,
"DH119": 5584,
"DH13": 5585,
"DH130": 5586,
"DH131": 5587,
"DH132": 5588,
"DH133": 5589,
"DH134": 5590,
"DH134A": 5591,
"DH134B": 5592,
"DH134C": 5593,
"DH134D": 5594,
"DH138": 5595,
"DH15": 5596,
"DH150": 5597,
"DH151": 5598,
"DH158": 5599,
"DH158B": 5600,
"DH159": 5601,
"DH16": 5602,
"DH160": 5603,
"DH160B": 5604,
"DH160F": 5605,
"DH160G": 5606,
"DH160G0": 5607,
"DH160G1": 5608,
"DH160H": 5609,
"DH161": 5610,
"DH161C": 5611,
"DH161F": 5612,
"DH161G": 5613,
"DH161G0": 5614,
"DH161G1": 5615,
"DH161J": 5616,
"DH161K": 5617,
"DH161M": 5618,
"DH161N": 5619,
"DH162": 5620,
"DH162A": 5621,
"DH163": 5622,
"DH164": 5623,
"DH165": 5624,
"DH165A": 5625,
"DH165B": 5626,
"DH165B0": 5627,
"DH165B1": 5628,
"DH165B2": 5629,
"DH165C": 5630,
"DH165D": 5631,
"DH165E": 5632,
"DH165F": 5633,
"DH165G": 5634,
"DH168": 5635,
"DH169": 5636,
"DH17": 5637,
"DH170": 5638,
"DH171": 5639,
"DH178": 5640,
"DH179": 5641,
"DH18": 5642,
"DH180": 5643,
"DH180A": 5644,
"DH180B": 5645,
"DH180C": 5646,
"DH180D": 5647,
"DH180E": 5648,
"DH180F": 5649,
"DH180G": 5650,
"DH181": 5651,
"DH181A": 5652,
"DH181B": 5653,
"DH181C": 5654,
"DH181D": 5655,
"DH181E": 5656,
"DH181F": 5657,
"DH182": 5658,
"DH183": 5659,
"DH183A": 5660,
"DH183B": 5661,
"DH184": 5662,
"DH184A": 5663,
"DH184B": 5664,
"DH184C": 5665,
"DH184D": 5666,
"DH184E": 5667,
"DH184F": 5668,
"DH185": 5669,
"DH185A": 5670,
"DH185B": 5671,
"DH185C": 5672,
"DH185D": 5673,
"DH185E": 5674,
"DH185F": 5675,
"DH185G": 5676,
"DH185H": 5677,
"DH186": 5678,
"DH187": 5679,
"DH187A": 5680,
"DH187B": 5681,
"DH187B0": 5682,
"DH187D": 5683,
"DH188": 5684,
"DH188A": 5685,
"DH188B": 5686,
"DH188C": 5687,
"DH189": 5688,
"DH19": 5689,
"DH190": 5690,
"DH190B": 5691,
"DH190E": 5692,
"DH192": 5693,
"DH193": 5694,
"DH198": 5695,
"DH20": 5696,
"DH200": 5697,
"DH201": 5698,
"DH202": 5699,
"DH208": 5700,
"DH209": 5701,
"DH21": 5702,
"DH210": 5703,
"DH211": 5704,
"DH211A": 5705,
"DH212": 5706,
"DH212A": 5707,
"DH212B": 5708,
"DH212C": 5709,
"DH212D": 5710,
"DH212E": 5711,
"DH212F": 5712,
"DH212G": 5713,
"DH212H": 5714,
"DH212I": 5715,
"DH213": 5716,
"DH213A": 5717,
"DH213B": 5718,
"DH213C": 5719,
"DH213D": 5720,
"DH213E": 5721,
"DH213F": 5722,
"DH213G": 5723,
"DH213H": 5724,
"DH213I": 5725,
"DH213J": 5726,
"DH213K": 5727,
"DH213L": 5728,
"DH214": 5729,
"DH214A": 5730,
"DH214B": 5731,
"DH215": 5732,
"DH215A": 5733,
"DH215B": 5734,
"DH215C": 5735,
"DH215D": 5736,
"DH215E": 5737,
"DH215F": 5738,
"DH218": 5739,
"DH219": 5740,
"DH22": 5741,
"DH220": 5742,
"DH221": 5743,
"DH228": 5744,
"DH25": 5745,
"DH250": 5746,
"DH250B": 5747,
"DH250E": 5748,
"DH251": 5749,
"DH258": 5750,
"DH259": 5751,
"DH26": 5752,
"DH260": 5753,
"DH260A": 5754,
"DH260B": 5755,
"DH260C": 5756,
"DH261": 5757,
"DH262": 5758,
"DH263": 5759,
"DH264": 5760,
"DH265": 5761,
"DH268": 5762,
"DH269": 5763,
"DH269A": 5764,
"DH27": 5765,
"DH270": 5766,
"DH271": 5767,
"DH278": 5768,
"DH278A": 5769,
"DH279": 5770,
"DH28": 5771,
"DH280": 5772,
"DH281": 5773,
"DH282": 5774,
"DH288": 5775,
"DH30": 5776,
"DH300": 5777,
"DH301": 5778,
"DH302": 5779,
"DH308": 5780,
"DH309": 5781,
"DH31": 5782,
"DH310": 5783,
"DH310A": 5784,
"DH310B": 5785,
"DH311": 5786,
"DH311A": 5787,
"DH311B": 5788,
"DH312": 5789,
"DH312A": 5790,
"DH312B": 5791,
"DH312C": 5792,
"DH312D": 5793,
"DH312E": 5794,
"DH312F": 5795,
"DH313": 5796,
"DH313A": 5797,
"DH313B": 5798,
"DH313C": 5799,
"DH314": 5800,
"DH318": 5801,
"DH319": 5802,
"DH32": 5803,
"DH320": 5804,
"DH328": 5805,
"DH33": 5806,
"DH330": 5807,
"DH330A": 5808,
"DH330A0": 5809,
"DH330A1": 5810,
"DH330B": 5811,
"DH330B0": 5812,
"DH330B1": 5813,
"DH331": 5814,
"DH331A": 5815,
"DH331B": 5816,
"DH331C": 5817,
"DH331D": 5818,
"DH331E": 5819,
"DH332": 5820,
"DH332A": 5821,
"DH333": 5822,
"DH333A": 5823,
"DH333B": 5824,
"DH334": 5825,
"DH334A": 5826,
"DH334B": 5827,
"DH335": 5828,
"DH34": 5829,
"DH340": 5830,
"DH340A": 5831,
"DH341": 5832,
"DH341A": 5833,
"DH341B": 5834,
"DH342": 5835,
"DH342A": 5836,
"DH342B": 5837,
"DH342C": 5838,
"DH348": 5839,
"DH348A": 5840,
"DH348B": 5841,
"DH348C": 5842,
"DH348D": 5843,
"DH348E": 5844,
"DH348F": 5845,
"DH349": 5846,
"DH35": 5847,
"DH350": 5848,
"DH350A": 5849,
"DH350B": 5850,
"DH350C": 5851,
"DH350D": 5852,
"DH350E": 5853,
"DH350F": 5854,
"DH350G": 5855,
"DH350H": 5856,
"DH350I": 5857,
"DH350J": 5858,
"DH350K": 5859,
"DH351": 5860,
"DH351A": 5861,
"DH352": 5862,
"DH352A": 5863,
"DH353": 5864,
"DH353A": 5865,
"DH353B": 5866,
"DH353C": 5867,
"DH353D": 5868,
"DH353E": 5869,
"DH353F": 5870,
"DH353G": 5871,
"DH353H": 5872,
"DH353J": 5873,
"DH353K": 5874,
"DH353L": 5875,
"DH353M": 5876,
"DH353N": 5877,
"DH353P": 5878,
"DH353Q": 5879,
"DH354": 5880,
"DH354A": 5881,
"DH354B": 5882,
"DH354C": 5883,
"DH354D": 5884,
"DH355": 5885,
"DH355A": 5886,
"DH355B": 5887,
"DH355C": 5888,
"DH355D": 5889,
"DH355E": 5890,
"DH355F": 5891,
"DH356": 5892,
"DH357": 5893,
"DH357A": 5894,
"DH357B": 5895,
"DH358": 5896,
"DH358A": 5897,
"DH359": 5898,
"DH36": 5899,
"DH360": 5900,
"DH360H": 5901,
"DH360J": 5902,
"DH360K": 5903,
"DH368": 5904,
"DH368D": 5905,
"DH368D1": 5906,
"DH368D2": 5907,
"DH40": 5908,
"DH400": 5909,
"DH400A": 5910,
"DH400B": 5911,
"DH400C": 5912,
"DH400D": 5913,
"DH400E": 5914,
"DH400F": 5915,
"DH400G": 5916,
"DH400H": 5917,
"DH400J": 5918,
"DH401": 5919,
"DH401A": 5920,
"DH402": 5921,
"DH402D": 5922,
"DH403": 5923,
"DH404": 5924,
"DH405": 5925,
"DH405A": 5926,
"DH405B": 5927,
"DH405C": 5928,
"DH406": 5929,
"DH408": 5930,
"DH409": 5931,
"DH42": 5932,
"DH420": 5933,
"DH428": 5934,
"DH43": 5935,
"DH430": 5936,
"DH431": 5937,
"DH432": 5938,
"DH433": 5939,
"DH433A": 5940,
"DH438": 5941,
"DH438C": 5942,
"DH438D": 5943,
"DH439": 5944,
"DH44": 5945,
"DH440": 5946,
"DH440A": 5947,
"DH440B": 5948,
"DH441": 5949,
"DH441A": 5950,
"DH441B": 5951,
"DH441C": 5952,
"DH441D": 5953,
"DH441E": 5954,
"DH442": 5955,
"DH443": 5956,
"DH443A": 5957,
"DH443B": 5958,
"DH444": 5959,
"DH445": 5960,
"DH445C": 5961,
"DH446": 5962,
"DH447": 5963,
"DH448": 5964,
"DH448A": 5965,
"DH448B": 5966,
"DH448C": 5967,
"DH448D": 5968,
"DH449": 5969,
"DH45": 5970,
"DH450": 5971,
"DH451": 5972,
"DH458": 5973,
"DH46": 5974,
"DH469": 5975,
"DH469A": 5976,
"DH469B": 5977,
"DH469C": 5978,
"DH47": 5979,
"DH470": 5980,
"DH470A": 5981,
"DH470B": 5982,
"DH470C": 5983,
"DH471": 5984,
"DH472": 5985,
"DH472A": 5986,
"DH473": 5987,
"DH473A": 5988,
"DH473B": 5989,
"DH474": 5990,
"DH475": 5991,
"DH475A": 5992,
"DH475B": 5993,
"DH475C": 5994,
"DH476": 5995,
"DH477": 5996,
"DH48": 5997,
"DH480": 5998,
"DH481": 5999,
"DH488": 6000,
"DH49": 6001,
"DH490": 6002,
"DH491": 6003,
"DH492": 6004,
"DH493": 6005,
"DH494": 6006,
"DH498": 6007,
"DH498A": 6008,
"DH498B": 6009,
"DH499": 6010,
"DH50": 6011,
"DH500": 6012,
"DH500A": 6013,
"DH500B": 6014,
"DH501": 6015,
"DH501A": 6016,
"DH501B": 6017,
"DH502": 6018,
"DH502A": 6019,
"DH502B": 6020,
"DH503": 6021,
"DH503A": 6022,
"DH503B": 6023,
"DH503C": 6024,
"DH503D": 6025,
"DH504": 6026,
"DH504A": 6027,
"DH504B": 6028,
"DH504E": 6029,
"DH504F": 6030,
"DH504G": 6031,
"DH505": 6032,
"DH505A": 6033,
"DH505B": 6034,
"DH505C": 6035,
"DH506": 6036,
"DH506A": 6037,
"DH506B": 6038,
"DH508": 6039,
"DH508A": 6040,
"DH509": 6041,
"DH51": 6042,
"DH510": 6043,
"DH511": 6044,
"DH512": 6045,
"DH518": 6046,
"DH519": 6047,
"DH52": 6048,
"DH520": 6049,
"DH521": 6050,
"DH522": 6051,
"DH522A": 6052,
"DH523": 6053,
"DH523A": 6054,
"DH523B": 6055,
"DH524": 6056,
"DH525": 6057,
"DH525A": 6058,
"DH525B": 6059,
"DH526": 6060,
"DH527": 6061,
"DH53": 6062,
"DH530": 6063,
"DH530A": 6064,
"DH530B": 6065,
"DH530C": 6066,
"DH531": 6067,
"DH531A": 6068,
"DH531B": 6069,
"DH531C": 6070,
"DH531D": 6071,
"DH531F": 6072,
"DH531G": 6073,
"DH531H": 6074,
"DH532": 6075,
"DH533": 6076,
"DH533A": 6077,
"DH533B": 6078,
"DH533C": 6079,
"DH533D": 6080,
"DH534": 6081,
"DH534A": 6082,
"DH534B": 6083,
"DH534C": 6084,
"DH534D": 6085,
"DH534E": 6086,
"DH534F": 6087,
"DH534G": 6088,
"DH534H": 6089,
"DH534I": 6090,
"DH535": 6091,
"DH535A": 6092,
"DH535B": 6093,
"DH535C": 6094,
"DH535D": 6095,
"DH535E": 6096,
"DH535F": 6097,
"DH535G": 6098,
"DH535H": 6099,
"DH536": 6100,
"DH538": 6101,
"DH539": 6102,
"DH54": 6103,
"DH540": 6104,
"DH541": 6105,
"DH542": 6106,
"DH543": 6107,
"DH544": 6108,
"DH545": 6109,
"DH546": 6110,
"DH547": 6111,
"DH55": 6112,
"DH559": 6113,
"DH559A": 6114,
"DH559B": 6115,
"DH559C": 6116,
"DH559D": 6117,
"DH559X": 6118,
"DH57": 6119,
"DH570": 6120,
"DH570A": 6121,
"DH571": 6122,
"DH578": 6123,
"DH579": 6124,
"DH58": 6125,
"DH580": 6126,
"DH581": 6127,
"DH588": 6128,
"DH59": 6129,
"DH590": 6130,
"DH598": 6131,
"DH598A": 6132,
"DH598B": 6133,
"DH599": 6134,
"DH60": 6135,
"DH600": 6136,
"DH600A": 6137,
"DH601": 6138,
"DH601B": 6139,
"DH602": 6140,
"DH603": 6141,
"DH603A": 6142,
"DH603B": 6143,
"DH603C": 6144,
"DH604": 6145,
"DH604A": 6146,
"DH605": 6147,
"DH605B": 6148,
"DH608": 6149,
"DH608A": 6150,
"DH609": 6151,
"DH61": 6152,
"DH610": 6153,
"DH610A": 6154,
"DH611": 6155,
"DH611A": 6156,
"DH612": 6157,
"DH612A": 6158,
"DH613": 6159,
"DH618": 6160,
"DH618A": 6161,
"DH619": 6162,
"DH62": 6163,
"DH620": 6164,
"DH621": 6165,
"DH622": 6166,
"DH623": 6167,
"DH624": 6168,
"DH628": 6169,
"DH65": 6170,
"DH650": 6171,
"DH650A": 6172,
"DH651": 6173,
"DH651C": 6174,
"DH651D": 6175,
"DH652": 6176,
"DH653": 6177,
"DH654": 6178,
"DH654C": 6179,
"DH659": 6180,
"DH66": 6181,
"DH660": 6182,
"DH660A": 6183,
"DH661": 6184,
"DH662": 6185,
"DH663": 6186,
"DH664": 6187,
"DH669": 6188,
"DH67": 6189,
"DH670": 6190,
"DH671": 6191,
"DH678": 6192,
"DH68": 6193,
"DH680": 6194,
"DH681": 6195,
"DH69": 6196,
"DH690": 6197,
"DH698": 6198,
"DH699": 6199,
"DH70": 6200,
"DH700": 6201,
"DH701": 6202,
"DH702": 6203,
"DH708": 6204,
"DH709": 6205,
"DH71": 6206,
"DH719": 6207,
"DH72": 6208,
"DH720": 6209,
"DH721": 6210,
"DH721A": 6211,
"DH722": 6212,
"DH728": 6213,
"DH728A": 6214,
"DH728B": 6215,
"DH729": 6216,
"DH73": 6217,
"DH730": 6218,
"DH730A": 6219,
"DH731": 6220,
"DH738": 6221,
"DH738A": 6222,
"DH739": 6223,
"DH74": 6224,
"DH740": 6225,
"DH741": 6226,
"DH742": 6227,
"DH743": 6228,
"DH743A": 6229,
"DH743B": 6230,
"DH744": 6231,
"DH748": 6232,
"DH749": 6233,
"DH75": 6234,
"DH750": 6235,
"DH758": 6236,
"DH80": 6237,
"DH800": 6238,
"DH801": 6239,
"DH802": 6240,
"DH808": 6241,
"DH809": 6242,
"DH81": 6243,
"DH810": 6244,
"DH810A": 6245,
"DH811": 6246,
"DH812": 6247,
"DH813": 6248,
"DH813A": 6249,
"DH813B": 6250,
"DH813C": 6251,
"DH813D": 6252,
"DH814": 6253,
"DH814A": 6254,
"DH818": 6255,
"DH819": 6256,
"DH82": 6257,
"DH829": 6258,
"DH83": 6259,
"DH830": 6260,
"DH831": 6261,
"DH832": 6262,
"DH832A": 6263,
"DH832B": 6264,
"DH833": 6265,
"DH833A": 6266,
"DH838": 6267,
"DH839": 6268,
"DH90": 6269,
"DH900": 6270,
"DH901": 6271,
"DH902": 6272,
"DH903": 6273,
"DH904": 6274,
"DH905": 6275,
"DH905A": 6276,
"DH905B": 6277,
"DH905C": 6278,
"DH905D": 6279,
"DH905E": 6280,
"DH906": 6281,
"DH907": 6282,
"DH908": 6283,
"DH91": 6284,
"DH910": 6285,
"DH911": 6286,
"DH912": 6287,
"DH912A": 6288,
"DH913": 6289,
"DH918": 6290,
"DH918A": 6291,
"DH918A1": 6292,
"DH918A2": 6293,
"DH918A3": 6294,
"DH918A4": 6295,
"DH918A5": 6296,
"DH919": 6297,
"DH919A": 6298,
"DH919B": 6299,
"DH92": 6300,
"DH920": 6301,
"DH921": 6302,
"DH922": 6303,
"DH93": 6304,
"DH930": 6305,
"DH930A": 6306,
"DH930B": 6307,
"DH930C": 6308,
"DH931": 6309,
"DH932": 6310,
"DH932A": 6311,
"DH932B": 6312,
"DH932C": 6313,
"DH933": 6314,
"DH933A": 6315,
"DH933B": 6316,
"DH938": 6317,
"DH938A": 6318,
"DH939": 6319,
"DH94": 6320,
"DH940": 6321,
"DH948": 6322,
"DH948A": 6323,
"DH95": 6324,
"DH950": 6325,
"DH951": 6326,
"DH951A": 6327,
"DH951B": 6328,
"DH951C": 6329,
"DH958": 6330,
"DH959": 6331,
"DI00": 6332,
"DI009": 6333,
"DI009A": 6334,
"DI009B": 6335,
"DI01": 6336,
"DI010": 6337,
"DI011": 6338,
"DI011A": 6339,
"DI012": 6340,
"DI018": 6341,
"DI018A": 6342,
"DI019": 6343,
"DI02": 6344,
"DI020": 6345,
"DI020A": 6346,
"DI029": 6347,
"DI05": 6348,
"DI050": 6349,
"DI051": 6350,
"DI052": 6351,
"DI058": 6352,
"DI059": 6353,
"DI06": 6354,
"DI060": 6355,
"DI061": 6356,
"DI062": 6357,
"DI068": 6358,
"DI069": 6359,
"DI07": 6360,
"DI070": 6361,
"DI071": 6362,
"DI072": 6363,
"DI078": 6364,
"DI079": 6365,
"DI08": 6366,
"DI080": 6367,
"DI080A": 6368,
"DI081": 6369,
"DI081A": 6370,
"DI082": 6371,
"DI082A": 6372,
"DI083": 6373,
"DI083A": 6374,
"DI088": 6375,
"DI089": 6376,
"DI09": 6377,
"DI090": 6378,
"DI091": 6379,
"DI091A": 6380,
"DI091B": 6381,
"DI092": 6382,
"DI092A": 6383,
"DI092B": 6384,
"DI092C": 6385,
"DI098": 6386,
"DI098A": 6387,
"DI098B": 6388,
"DI098C": 6389,
"DI098E": 6390,
"DI099": 6391,
"DI099A": 6392,
"DI10": 6393,
"DI109": 6394,
"DI11": 6395,
"DI110": 6396,
"DI119": 6397,
"DI119A": 6398,
"DI12": 6399,
"DI120": 6400,
"DI129": 6401,
"DI129A": 6402,
"DI13": 6403,
"DI130": 6404,
"DI131": 6405,
"DI132": 6406,
"DI139": 6407,
"DI15": 6408,
"DI150": 6409,
"DI151": 6410,
"DI152": 6411,
"DI158": 6412,
"DI159": 6413,
"DI20": 6414,
"DI200": 6415,
"DI200B": 6416,
"DI200C": 6417,
"DI201": 6418,
"DI208": 6419,
"DI208D": 6420,
"DI208E": 6421,
"DI208E1": 6422,
"DI208E2": 6423,
"DI209": 6424,
"DI21": 6425,
"DI210": 6426,
"DI210A": 6427,
"DI210B": 6428,
"DI211": 6429,
"DI211A": 6430,
"DI211B": 6431,
"DI213": 6432,
"DI213A": 6433,
"DI213B": 6434,
"DI213C": 6435,
"DI214": 6436,
"DI219": 6437,
"DI219A": 6438,
"DI23": 6439,
"DI230": 6440,
"DI231": 6441,
"DI232": 6442,
"DI233": 6443,
"DI234": 6444,
"DI235": 6445,
"DI236": 6446,
"DI236A": 6447,
"DI236B": 6448,
"DI238": 6449,
"DI238A": 6450,
"DI24": 6451,
"DI240": 6452,
"DI240A": 6453,
"DI241": 6454,
"DI248": 6455,
"DI248A": 6456,
"DI249": 6457,
"DI25": 6458,
"DI251": 6459,
"DI252": 6460,
"DI252A": 6461,
"DI252B": 6462,
"DI252C": 6463,
"DI253": 6464,
"DI254": 6465,
"DI254A": 6466,
"DI254B": 6467,
"DI255": 6468,
"DI256": 6469,
"DI258": 6470,
"DI259": 6471,
"DI26": 6472,
"DI260": 6473,
"DI260A": 6474,
"DI269": 6475,
"DI269A": 6476,
"DI27": 6477,
"DI270": 6478,
"DI271": 6479,
"DI272": 6480,
"DI278": 6481,
"DI278A": 6482,
"DI279": 6483,
"DI279A": 6484,
"DI28": 6485,
"DI280": 6486,
"DI281": 6487,
"DI288": 6488,
"DI288A": 6489,
"DI288B": 6490,
"DI289": 6491,
"DI30": 6492,
"DI300": 6493,
"DI301": 6494,
"DI301A": 6495,
"DI301B": 6496,
"DI301C": 6497,
"DI301D": 6498,
"DI301E": 6499,
"DI308": 6500,
"DI309": 6501,
"DI31": 6502,
"DI310": 6503,
"DI310B": 6504,
"DI310C": 6505,
"DI311": 6506,
"DI311A": 6507,
"DI312": 6508,
"DI313": 6509,
"DI313A": 6510,
"DI318": 6511,
"DI318A": 6512,
"DI318B": 6513,
"DI319": 6514,
"DI319A": 6515,
"DI32": 6516,
"DI320": 6517,
"DI321": 6518,
"DI328": 6519,
"DI33": 6520,
"DI330": 6521,
"DI339": 6522,
"DI34": 6523,
"DI340": 6524,
"DI341": 6525,
"DI342": 6526,
"DI348": 6527,
"DI348A": 6528,
"DI349": 6529,
"DI35": 6530,
"DI350": 6531,
"DI351": 6532,
"DI352": 6533,
"DI358": 6534,
"DI358A": 6535,
"DI359": 6536,
"DI36": 6537,
"DI360": 6538,
"DI361": 6539,
"DI362": 6540,
"DI368": 6541,
"DI368A": 6542,
"DI369": 6543,
"DI37": 6544,
"DI370": 6545,
"DI371": 6546,
"DI372": 6547,
"DI378": 6548,
"DI379": 6549,
"DI38": 6550,
"DI389": 6551,
"DI39": 6552,
"DI390": 6553,
"DI391": 6554,
"DI392": 6555,
"DI393": 6556,
"DI394": 6557,
"DI398": 6558,
"DI40": 6559,
"DI400": 6560,
"DI401": 6561,
"DI408": 6562,
"DI408A": 6563,
"DI409": 6564,
"DI41": 6565,
"DI410": 6566,
"DI411": 6567,
"DI412": 6568,
"DI418": 6569,
"DI42": 6570,
"DI420": 6571,
"DI421": 6572,
"DI421A": 6573,
"DI422": 6574,
"DI423": 6575,
"DI423A": 6576,
"DI423B": 6577,
"DI424": 6578,
"DI424A": 6579,
"DI425": 6580,
"DI426": 6581,
"DI427": 6582,
"DI428": 6583,
"DI428A": 6584,
"DI428B": 6585,
"DI429": 6586,
"DI43": 6587,
"DI430": 6588,
"DI431": 6589,
"DI432": 6590,
"DI438": 6591,
"DI44": 6592,
"DI440": 6593,
"DI441": 6594,
"DI441B": 6595,
"DI441C": 6596,
"DI441D": 6597,
"DI441E": 6598,
"DI442": 6599,
"DI442A": 6600,
"DI443": 6601,
"DI443A": 6602,
"DI444": 6603,
"DI445": 6604,
"DI446": 6605,
"DI446A": 6606,
"DI446B": 6607,
"DI447": 6608,
"DI45": 6609,
"DI450": 6610,
"DI451": 6611,
"DI451A": 6612,
"DI452": 6613,
"DI453": 6614,
"DI454": 6615,
"DI455": 6616,
"DI455A": 6617,
"DI455B": 6618,
"DI455C": 6619,
"DI455G": 6620,
"DI455H": 6621,
"DI455K": 6622,
"DI455L": 6623,
"DI456": 6624,
"DI456A": 6625,
"DI456AA": 6626,
"DI456B": 6627,
"DI456C": 6628,
"DI456D": 6629,
"DI456DA": 6630,
"DI456DB": 6631,
"DI456E": 6632,
"DI458": 6633,
"DI458M": 6634,
"DI458N": 6635,
"DI459": 6636,
"DI459A": 6637,
"DI46": 6638,
"DI460": 6639,
"DI461": 6640,
"DI469": 6641,
"DI47": 6642,
"DI470": 6643,
"DI470A": 6644,
"DI470B": 6645,
"DI470C": 6646,
"DI470D": 6647,
"DI470H": 6648,
"DI470HA": 6649,
"DI470HB": 6650,
"DI471": 6651,
"DI471E": 6652,
"DI471EA": 6653,
"DI471EB": 6654,
"DI471F": 6655,
"DI471FA": 6656,
"DI471G": 6657,
"DI471H": 6658,
"DI471J": 6659,
"DI471L": 6660,
"DI471LA": 6661,
"DI471M": 6662,
"DI471N": 6663,
"DI471P": 6664,
"DI471PA": 6665,
"DI471PB": 6666,
"DI471R": 6667,
"DI471RA": 6668,
"DI471RB": 6669,
"DI471RC": 6670,
"DI471X": 6671,
"DI472": 6672,
"DI472A": 6673,
"DI472B": 6674,
"DI472D": 6675,
"DI472E": 6676,
"DI472EA": 6677,
"DI472EB": 6678,
"DI472F": 6679,
"DI472FA": 6680,
"DI472H": 6681,
"DI472L": 6682,
"DI472LA": 6683,
"DI472LB": 6684,
"DI472LC": 6685,
"DI472M": 6686,
"DI472N": 6687,
"DI472NA": 6688,
"DI478": 6689,
"DI478A": 6690,
"DI479": 6691,
"DI48": 6692,
"DI480": 6693,
"DI481": 6694,
"DI482": 6695,
"DI483": 6696,
"DI484": 6697,
"DI489": 6698,
"DI49": 6699,
"DI490": 6700,
"DI490A": 6701,
"DI490B": 6702,
"DI490BA": 6703,
"DI491": 6704,
"DI491A": 6705,
"DI491B": 6706,
"DI491C": 6707,
"DI491D": 6708,
"DI491E": 6709,
"DI492": 6710,
"DI493": 6711,
"DI493A": 6712,
"DI493B": 6713,
"DI493C": 6714,
"DI494": 6715,
"DI494A": 6716,
"DI495": 6717,
"DI495B": 6718,
"DI498": 6719,
"DI499": 6720,
"DI499A": 6721,
"DI50": 6722,
"DI500": 6723,
"DI500A": 6724,
"DI501": 6725,
"DI501A": 6726,
"DI501B": 6727,
"DI501C": 6728,
"DI501D": 6729,
"DI509": 6730,
"DI51": 6731,
"DI510": 6732,
"DI510A": 6733,
"DI510B": 6734,
"DI511": 6735,
"DI511A": 6736,
"DI512": 6737,
"DI513": 6738,
"DI513A": 6739,
"DI513B": 6740,
"DI513C": 6741,
"DI514": 6742,
"DI514A": 6743,
"DI514B": 6744,
"DI515": 6745,
"DI515A": 6746,
"DI515B": 6747,
"DI516": 6748,
"DI517": 6749,
"DI517A": 6750,
"DI517B": 6751,
"DI517C": 6752,
"DI518": 6753,
"DI518A": 6754,
"DI518B": 6755,
"DI519": 6756,
"DI52": 6757,
"DI520": 6758,
"DI521": 6759,
"DI521C": 6760,
"DI528": 6761,
"DI60": 6762,
"DI600": 6763,
"DI601": 6764,
"DI602": 6765,
"DI603": 6766,
"DI604": 6767,
"DI605": 6768,
"DI606": 6769,
"DI606A": 6770,
"DI606B": 6771,
"DI606C": 6772,
"DI607": 6773,
"DI607A": 6774,
"DI608": 6775,
"DI609": 6776,
"DI609A": 6777,
"DI61": 6778,
"DI610": 6779,
"DI610A": 6780,
"DI611": 6781,
"DI611A": 6782,
"DI611B": 6783,
"DI612": 6784,
"DI613": 6785,
"DI614": 6786,
"DI615": 6787,
"DI616": 6788,
"DI618": 6789,
"DI619": 6790,
"DI62": 6791,
"DI620": 6792,
"DI621": 6793,
"DI629": 6794,
"DI63": 6795,
"DI630": 6796,
"DI631": 6797,
"DI632": 6798,
"DI633": 6799,
"DI634": 6800,
"DI635": 6801,
"DI636": 6802,
"DI638": 6803,
"DI639": 6804,
"DI64": 6805,
"DI649": 6806,
"DI65": 6807,
"DI650": 6808,
"DI650A": 6809,
"DI650B": 6810,
"DI651": 6811,
"DI651A": 6812,
"DI651B": 6813,
"DI652": 6814,
"DI652A": 6815,
"DI652B": 6816,
"DI653": 6817,
"DI653A": 6818,
"DI653B": 6819,
"DI653C": 6820,
"DI653D": 6821,
"DI658": 6822,
"DI659": 6823,
"DI66": 6824,
"DI660": 6825,
"DI660A": 6826,
"DI660B": 6827,
"DI661": 6828,
"DI661A": 6829,
"DI661B": 6830,
"DI662": 6831,
"DI662A": 6832,
"DI662B": 6833,
"DI663": 6834,
"DI663A": 6835,
"DI663B": 6836,
"DI664": 6837,
"DI664A": 6838,
"DI664B": 6839,
"DI664C": 6840,
"DI664D": 6841,
"DI668": 6842,
"DI668A": 6843,
"DI669": 6844,
"DI67": 6845,
"DI670": 6846,
"DI671": 6847,
"DI671A": 6848,
"DI672": 6849,
"DI672A": 6850,
"DI673": 6851,
"DI673A": 6852,
"DI674": 6853,
"DI675": 6854,
"DI676": 6855,
"DI676A": 6856,
"DI677": 6857,
"DI677A": 6858,
"DI678": 6859,
"DI678A": 6860,
"DI678B": 6861,
"DI679": 6862,
"DI68": 6863,
"DI680": 6864,
"DI681": 6865,
"DI682": 6866,
"DI688": 6867,
"DI69": 6868,
"DI690": 6869,
"DI691": 6870,
"DI692": 6871,
"DI693": 6872,
"DI694": 6873,
"DI698": 6874,
"DI70": 6875,
"DI700": 6876,
"DI701": 6877,
"DI702": 6878,
"DI702A": 6879,
"DI702B": 6880,
"DI708": 6881,
"DI708A": 6882,
"DI709": 6883,
"DI71": 6884,
"DI710": 6885,
"DI710A": 6886,
"DI710B": 6887,
"DI711": 6888,
"DI712": 6889,
"DI713": 6890,
"DI714": 6891,
"DI715": 6892,
"DI716": 6893,
"DI718": 6894,
"DI719": 6895,
"DI719A": 6896,
"DI719B": 6897,
"DI72": 6898,
"DI720": 6899,
"DI721": 6900,
"DI722": 6901,
"DI723": 6902,
"DI724": 6903,
"DI725": 6904,
"DI726": 6905,
"DI728": 6906,
"DI729": 6907,
"DI73": 6908,
"DI730": 6909,
"DI731": 6910,
"DI738": 6911,
"DI738A": 6912,
"DI738B": 6913,
"DI738C": 6914,
"DI738D": 6915,
"DI738E": 6916,
"DI739": 6917,
"DI739A": 6918,
"DI739B": 6919,
"DI739C": 6920,
"DI74": 6921,
"DI740": 6922,
"DI740A": 6923,
"DI740B": 6924,
"DI740C": 6925,
"DI740D": 6926,
"DI741": 6927,
"DI741A": 6928,
"DI741B": 6929,
"DI742": 6930,
"DI742A": 6931,
"DI742B": 6932,
"DI743": 6933,
"DI743A": 6934,
"DI743B": 6935,
"DI744": 6936,
"DI744A": 6937,
"DI744B": 6938,
"DI744C": 6939,
"DI745": 6940,
"DI745A": 6941,
"DI745B": 6942,
"DI748": 6943,
"DI749": 6944,
"DI77": 6945,
"DI770": 6946,
"DI770A": 6947,
"DI770B": 6948,
"DI771": 6949,
"DI772": 6950,
"DI772A": 6951,
"DI772B": 6952,
"DI773": 6953,
"DI774": 6954,
"DI775": 6955,
"DI776": 6956,
"DI776A": 6957,
"DI778": 6958,
"DI778A": 6959,
"DI779": 6960,
"DI78": 6961,
"DI780": 6962,
"DI781": 6963,
"DI781A": 6964,
"DI781B": 6965,
"DI781D": 6966,
"DI788": 6967,
"DI788A": 6968,
"DI788B": 6969,
"DI788C": 6970,
"DI788D": 6971,
"DI789": 6972,
"DI79": 6973,
"DI790": 6974,
"DI791": 6975,
"DI792": 6976,
"DI798": 6977,
"DI80": 6978,
"DI800": 6979,
"DI800A": 6980,
"DI800B": 6981,
"DI801": 6982,
"DI801A": 6983,
"DI801B": 6984,
"DI802": 6985,
"DI802A": 6986,
"DI802B": 6987,
"DI803": 6988,
"DI803A": 6989,
"DI803B": 6990,
"DI803C": 6991,
"DI803D": 6992,
"DI803E": 6993,
"DI803F": 6994,
"DI808": 6995,
"DI808A": 6996,
"DI808B": 6997,
"DI808C": 6998,
"DI808D": 6999,
"DI809": 7000,
"DI81": 7001,
"DI819": 7002,
"DI82": 7003,
"DI820": 7004,
"DI821": 7005,
"DI822": 7006,
"DI822A": 7007,
"DI822B": 7008,
"DI823": 7009,
"DI823A": 7010,
"DI823B": 7011,
"DI828": 7012,
"DI829": 7013,
"DI829A": 7014,
"DI829B": 7015,
"DI83": 7016,
"DI830": 7017,
"DI830A": 7018,
"DI830B": 7019,
"DI831": 7020,
"DI831A": 7021,
"DI832": 7022,
"DI839": 7023,
"DI839A": 7024,
"DI839B": 7025,
"DI85": 7026,
"DI850": 7027,
"DI859": 7028,
"DI86": 7029,
"DI860": 7030,
"DI861": 7031,
"DI862": 7032,
"DI863": 7033,
"DI864": 7034,
"DI864A": 7035,
"DI868": 7036,
"DI868A": 7037,
"DI87": 7038,
"DI870": 7039,
"DI871": 7040,
"DI871A": 7041,
"DI871B": 7042,
"DI871C": 7043,
"DI872": 7044,
"DI872A": 7045,
"DI878": 7046,
"DI879": 7047,
"DI88": 7048,
"DI880": 7049,
"DI880A": 7050,
"DI880B": 7051,
"DI881": 7052,
"DI881A": 7053,
"DI888": 7054,
"DI889": 7055,
"DI89": 7056,
"DI890": 7057,
"DI890A": 7058,
"DI890B": 7059,
"DI890C": 7060,
"DI891": 7061,
"DI891A": 7062,
"DI891B": 7063,
"DI891C": 7064,
"DI898": 7065,
"DI898A": 7066,
"DI898B": 7067,
"DI898C": 7068,
"DI899": 7069,
"DI95": 7070,
"DI950": 7071,
"DI951": 7072,
"DI952": 7073,
"DI958": 7074,
"DI958A": 7075,
"DI959": 7076,
"DI97": 7077,
"DI970": 7078,
"DI971": 7079,
"DI971A": 7080,
"DI972": 7081,
"DI978": 7082,
"DI979": 7083,
"DI98": 7084,
"DI980": 7085,
"DI981": 7086,
"DI982": 7087,
"DI988": 7088,
"DI99": 7089,
"DI999": 7090,
"DJ00": 7091,
"DJ009": 7092,
"DJ01": 7093,
"DJ010": 7094,
"DJ011": 7095,
"DJ012": 7096,
"DJ013": 7097,
"DJ014": 7098,
"DJ018": 7099,
"DJ019": 7100,
"DJ02": 7101,
"DJ020": 7102,
"DJ020A": 7103,
"DJ028": 7104,
"DJ029": 7105,
"DJ029A": 7106,
"DJ029B": 7107,
"DJ029C": 7108,
"DJ03": 7109,
"DJ030": 7110,
"DJ038": 7111,
"DJ039": 7112,
"DJ039A": 7113,
"DJ039B": 7114,
"DJ039C": 7115,
"DJ039D": 7116,
"DJ039E": 7117,
"DJ039F": 7118,
"DJ04": 7119,
"DJ040": 7120,
"DJ040A": 7121,
"DJ040B": 7122,
"DJ040C": 7123,
"DJ040D": 7124,
"DJ041": 7125,
"DJ042": 7126,
"DJ05": 7127,
"DJ050": 7128,
"DJ051": 7129,
"DJ06": 7130,
"DJ060": 7131,
"DJ068": 7132,
"DJ069": 7133,
"DJ09": 7134,
"DJ091": 7135,
"DJ091A": 7136,
"DJ091B": 7137,
"DJ10": 7138,
"DJ100": 7139,
"DJ101": 7140,
"DJ101A": 7141,
"DJ101B": 7142,
"DJ101C": 7143,
"DJ108": 7144,
"DJ108A": 7145,
"DJ11": 7146,
"DJ110": 7147,
"DJ111": 7148,
"DJ111A": 7149,
"DJ111B": 7150,
"DJ111C": 7151,
"DJ118": 7152,
"DJ118B": 7153,
"DJ118D": 7154,
"DJ12": 7155,
"DJ120": 7156,
"DJ121": 7157,
"DJ122": 7158,
"DJ123": 7159,
"DJ128": 7160,
"DJ128A": 7161,
"DJ129": 7162,
"DJ13": 7163,
"DJ139": 7164,
"DJ139A": 7165,
"DJ139B": 7166,
"DJ14": 7167,
"DJ149": 7168,
"DJ149A": 7169,
"DJ149B": 7170,
"DJ15": 7171,
"DJ150": 7172,
"DJ151": 7173,
"DJ152": 7174,
"DJ153": 7175,
"DJ154": 7176,
"DJ155": 7177,
"DJ156": 7178,
"DJ156A": 7179,
"DJ157": 7180,
"DJ158": 7181,
"DJ159": 7182,
"DJ16": 7183,
"DJ160": 7184,
"DJ168": 7185,
"DJ17": 7186,
"DJ170": 7187,
"DJ171": 7188,
"DJ172": 7189,
"DJ173": 7190,
"DJ178": 7191,
"DJ18": 7192,
"DJ180": 7193,
"DJ181": 7194,
"DJ182": 7195,
"DJ188": 7196,
"DJ189": 7197,
"DJ20": 7198,
"DJ200": 7199,
"DJ200A": 7200,
"DJ201": 7201,
"DJ201A": 7202,
"DJ202": 7203,
"DJ202A": 7204,
"DJ203": 7205,
"DJ203A": 7206,
"DJ204": 7207,
"DJ204A": 7208,
"DJ205": 7209,
"DJ205A": 7210,
"DJ206": 7211,
"DJ206A": 7212,
"DJ207": 7213,
"DJ207A": 7214,
"DJ208": 7215,
"DJ208A": 7216,
"DJ209": 7217,
"DJ209A": 7218,
"DJ21": 7219,
"DJ210": 7220,
"DJ211": 7221,
"DJ218": 7222,
"DJ219": 7223,
"DJ22": 7224,
"DJ229": 7225,
"DJ30": 7226,
"DJ300": 7227,
"DJ300B": 7228,
"DJ301": 7229,
"DJ301A": 7230,
"DJ301B": 7231,
"DJ301C": 7232,
"DJ302": 7233,
"DJ303": 7234,
"DJ303A": 7235,
"DJ304": 7236,
"DJ31": 7237,
"DJ310": 7238,
"DJ311": 7239,
"DJ312": 7240,
"DJ32": 7241,
"DJ320": 7242,
"DJ321": 7243,
"DJ322": 7244,
"DJ323": 7245,
"DJ324": 7246,
"DJ328": 7247,
"DJ329": 7248,
"DJ33": 7249,
"DJ330": 7250,
"DJ331": 7251,
"DJ331A": 7252,
"DJ338": 7253,
"DJ338A": 7254,
"DJ338B": 7255,
"DJ338C": 7256,
"DJ338D": 7257,
"DJ339": 7258,
"DJ34": 7259,
"DJ340": 7260,
"DJ340A": 7261,
"DJ340B": 7262,
"DJ340D": 7263,
"DJ340E": 7264,
"DJ340F": 7265,
"DJ340G": 7266,
"DJ340H": 7267,
"DJ340I": 7268,
"DJ340J": 7269,
"DJ341": 7270,
"DJ341A": 7271,
"DJ341B": 7272,
"DJ341C": 7273,
"DJ341D": 7274,
"DJ342": 7275,
"DJ343": 7276,
"DJ343A": 7277,
"DJ348": 7278,
"DJ348A": 7279,
"DJ348B": 7280,
"DJ348C": 7281,
"DJ35": 7282,
"DJ350": 7283,
"DJ351": 7284,
"DJ351A": 7285,
"DJ351B": 7286,
"DJ352": 7287,
"DJ353": 7288,
"DJ358": 7289,
"DJ359": 7290,
"DJ36": 7291,
"DJ369": 7292,
"DJ37": 7293,
"DJ370": 7294,
"DJ370A": 7295,
"DJ370B": 7296,
"DJ370C": 7297,
"DJ371": 7298,
"DJ38": 7299,
"DJ380": 7300,
"DJ380A": 7301,
"DJ380B": 7302,
"DJ380C": 7303,
"DJ380C1": 7304,
"DJ381": 7305,
"DJ381A": 7306,
"DJ381B": 7307,
"DJ382": 7308,
"DJ382A": 7309,
"DJ383": 7310,
"DJ383A": 7311,
"DJ383B": 7312,
"DJ383C": 7313,
"DJ383D": 7314,
"DJ383E": 7315,
"DJ383V": 7316,
"DJ384": 7317,
"DJ384A": 7318,
"DJ384B": 7319,
"DJ384C": 7320,
"DJ384D": 7321,
"DJ385": 7322,
"DJ385A": 7323,
"DJ385B": 7324,
"DJ386": 7325,
"DJ387": 7326,
"DJ387A": 7327,
"DJ387B": 7328,
"DJ387C": 7329,
"DJ387D": 7330,
"DJ387E": 7331,
"DJ387F": 7332,
"DJ387G": 7333,
"DJ388": 7334,
"DJ388A": 7335,
"DJ388A1": 7336,
"DJ388A2": 7337,
"DJ388B": 7338,
"DJ388B1": 7339,
"DJ388B2": 7340,
"DJ388C": 7341,
"DJ388C1": 7342,
"DJ388C2": 7343,
"DJ39": 7344,
"DJ390": 7345,
"DJ390A": 7346,
"DJ390B": 7347,
"DJ390C": 7348,
"DJ391": 7349,
"DJ391A": 7350,
"DJ391B": 7351,
"DJ391C": 7352,
"DJ392": 7353,
"DJ392A": 7354,
"DJ392B": 7355,
"DJ392C": 7356,
"DJ392D": 7357,
"DJ398": 7358,
"DJ398A": 7359,
"DJ399": 7360,
"DJ40": 7361,
"DJ409": 7362,
"DJ41": 7363,
"DJ410": 7364,
"DJ411": 7365,
"DJ418": 7366,
"DJ42": 7367,
"DJ429": 7368,
"DJ429A": 7369,
"DJ429B": 7370,
"DJ43": 7371,
"DJ430": 7372,
"DJ431": 7373,
"DJ431A": 7374,
"DJ432": 7375,
"DJ438": 7376,
"DJ439": 7377,
"DJ439A": 7378,
"DJ44": 7379,
"DJ440": 7380,
"DJ441": 7381,
"DJ448": 7382,
"DJ448A": 7383,
"DJ448B": 7384,
"DJ448C": 7385,
"DJ449": 7386,
"DJ45": 7387,
"DJ450": 7388,
"DJ450A": 7389,
"DJ451": 7390,
"DJ451A": 7391,
"DJ458": 7392,
"DJ459": 7393,
"DJ46": 7394,
"DJ469": 7395,
"DJ47": 7396,
"DJ479": 7397,
"DJ60": 7398,
"DJ609": 7399,
"DJ609A": 7400,
"DJ61": 7401,
"DJ619": 7402,
"DJ62": 7403,
"DJ620": 7404,
"DJ628": 7405,
"DJ628A": 7406,
"DJ628B": 7407,
"DJ63": 7408,
"DJ630": 7409,
"DJ631": 7410,
"DJ632": 7411,
"DJ633": 7412,
"DJ634": 7413,
"DJ635": 7414,
"DJ638": 7415,
"DJ638A": 7416,
"DJ638B": 7417,
"DJ64": 7418,
"DJ649": 7419,
"DJ65": 7420,
"DJ659": 7421,
"DJ66": 7422,
"DJ660": 7423,
"DJ661": 7424,
"DJ662": 7425,
"DJ668": 7426,
"DJ67": 7427,
"DJ670": 7428,
"DJ671": 7429,
"DJ672": 7430,
"DJ673": 7431,
"DJ674": 7432,
"DJ675": 7433,
"DJ676": 7434,
"DJ677": 7435,
"DJ678": 7436,
"DJ678A": 7437,
"DJ678B": 7438,
"DJ678C": 7439,
"DJ678D": 7440,
"DJ678E": 7441,
"DJ679": 7442,
"DJ679A": 7443,
"DJ68": 7444,
"DJ680": 7445,
"DJ680B": 7446,
"DJ680C": 7447,
"DJ681": 7448,
"DJ682": 7449,
"DJ683": 7450,
"DJ684": 7451,
"DJ684A": 7452,
"DJ684B": 7453,
"DJ684C": 7454,
"DJ688": 7455,
"DJ689": 7456,
"DJ69": 7457,
"DJ690": 7458,
"DJ691": 7459,
"DJ698": 7460,
"DJ698A": 7461,
"DJ70": 7462,
"DJ700": 7463,
"DJ701": 7464,
"DJ702": 7465,
"DJ703": 7466,
"DJ704": 7467,
"DJ708": 7468,
"DJ709": 7469,
"DJ80": 7470,
"DJ801": 7471,
"DJ809": 7472,
"DJ809A": 7473,
"DJ809B": 7474,
"DJ809C": 7475,
"DJ81": 7476,
"DJ819": 7477,
"DJ82": 7478,
"DJ821": 7479,
"DJ829": 7480,
"DJ84": 7481,
"DJ840": 7482,
"DJ840A": 7483,
"DJ840B": 7484,
"DJ841": 7485,
"DJ841A": 7486,
"DJ841B": 7487,
"DJ841C": 7488,
"DJ841D": 7489,
"DJ841F": 7490,
"DJ841G": 7491,
"DJ841X": 7492,
"DJ848": 7493,
"DJ848A": 7494,
"DJ849": 7495,
"DJ85": 7496,
"DJ850": 7497,
"DJ851": 7498,
"DJ852": 7499,
"DJ853": 7500,
"DJ86": 7501,
"DJ860": 7502,
"DJ869": 7503,
"DJ90": 7504,
"DJ909": 7505,
"DJ91": 7506,
"DJ919": 7507,
"DJ92": 7508,
"DJ920": 7509,
"DJ929": 7510,
"DJ93": 7511,
"DJ930": 7512,
"DJ931": 7513,
"DJ938": 7514,
"DJ939": 7515,
"DJ94": 7516,
"DJ940": 7517,
"DJ941": 7518,
"DJ942": 7519,
"DJ942A": 7520,
"DJ948": 7521,
"DJ948A": 7522,
"DJ949": 7523,
"DJ95": 7524,
"DJ950": 7525,
"DJ950A": 7526,
"DJ950B": 7527,
"DJ950C": 7528,
"DJ950D": 7529,
"DJ951": 7530,
"DJ952": 7531,
"DJ953": 7532,
"DJ954": 7533,
"DJ955": 7534,
"DJ958": 7535,
"DJ958A": 7536,
"DJ959": 7537,
"DJ96": 7538,
"DJ960": 7539,
"DJ961": 7540,
"DJ969": 7541,
"DJ98": 7542,
"DJ980": 7543,
"DJ980A": 7544,
"DJ980B": 7545,
"DJ980C": 7546,
"DJ980D": 7547,
"DJ980E": 7548,
"DJ980F": 7549,
"DJ980G": 7550,
"DJ980H": 7551,
"DJ980I": 7552,
"DJ981": 7553,
"DJ982": 7554,
"DJ982A": 7555,
"DJ983": 7556,
"DJ984": 7557,
"DJ984A": 7558,
"DJ984B": 7559,
"DJ984C": 7560,
"DJ985": 7561,
"DJ985A": 7562,
"DJ985B": 7563,
"DJ985C": 7564,
"DJ985D": 7565,
"DJ986": 7566,
"DJ986A": 7567,
"DJ986B": 7568,
"DJ986C": 7569,
"DJ986D": 7570,
"DJ988": 7571,
"DJ988A": 7572,
"DJ989": 7573,
"DJ99": 7574,
"DJ990": 7575,
"DJ991": 7576,
"DJ998": 7577,
"DK00": 7578,
"DK000": 7579,
"DK000A": 7580,
"DK001": 7581,
"DK002": 7582,
"DK002A": 7583,
"DK002B": 7584,
"DK002C": 7585,
"DK002D": 7586,
"DK002E": 7587,
"DK002G": 7588,
"DK003": 7589,
"DK003A": 7590,
"DK004": 7591,
"DK004A": 7592,
"DK004B": 7593,
"DK005": 7594,
"DK005A": 7595,
"DK005B": 7596,
"DK005C": 7597,
"DK006": 7598,
"DK006A": 7599,
"DK006B": 7600,
"DK006C": 7601,
"DK006D": 7602,
"DK007": 7603,
"DK007A": 7604,
"DK008": 7605,
"DK008A": 7606,
"DK008B": 7607,
"DK009": 7608,
"DK01": 7609,
"DK010": 7610,
"DK011": 7611,
"DK02": 7612,
"DK020": 7613,
"DK021": 7614,
"DK022": 7615,
"DK023": 7616,
"DK024": 7617,
"DK025": 7618,
"DK028": 7619,
"DK029": 7620,
"DK03": 7621,
"DK030": 7622,
"DK031": 7623,
"DK032": 7624,
"DK033": 7625,
"DK033A": 7626,
"DK033B": 7627,
"DK033C": 7628,
"DK034": 7629,
"DK035": 7630,
"DK036": 7631,
"DK036A": 7632,
"DK036B": 7633,
"DK036C": 7634,
"DK037": 7635,
"DK038": 7636,
"DK038A": 7637,
"DK038B": 7638,
"DK038C": 7639,
"DK039": 7640,
"DK04": 7641,
"DK040": 7642,
"DK040A": 7643,
"DK040B": 7644,
"DK041": 7645,
"DK041A": 7646,
"DK042": 7647,
"DK043": 7648,
"DK044": 7649,
"DK045": 7650,
"DK045A": 7651,
"DK045B": 7652,
"DK046": 7653,
"DK046A": 7654,
"DK046B": 7655,
"DK046C": 7656,
"DK046D": 7657,
"DK046E": 7658,
"DK047": 7659,
"DK047A": 7660,
"DK047B": 7661,
"DK048": 7662,
"DK048A": 7663,
"DK048B": 7664,
"DK048C": 7665,
"DK049": 7666,
"DK05": 7667,
"DK050": 7668,
"DK051": 7669,
"DK051A": 7670,
"DK051B": 7671,
"DK051C": 7672,
"DK051D": 7673,
"DK052": 7674,
"DK052A": 7675,
"DK052B": 7676,
"DK052C": 7677,
"DK053": 7678,
"DK053A": 7679,
"DK053B": 7680,
"DK054": 7681,
"DK054A": 7682,
"DK055": 7683,
"DK056": 7684,
"DK06": 7685,
"DK060": 7686,
"DK061": 7687,
"DK061A": 7688,
"DK061B": 7689,
"DK062": 7690,
"DK062A": 7691,
"DK062B": 7692,
"DK068": 7693,
"DK068A": 7694,
"DK068B": 7695,
"DK068C": 7696,
"DK068D": 7697,
"DK068E": 7698,
"DK068F": 7699,
"DK068G": 7700,
"DK068H": 7701,
"DK068I": 7702,
"DK068K": 7703,
"DK068L": 7704,
"DK069": 7705,
"DK07": 7706,
"DK070": 7707,
"DK070A": 7708,
"DK070B": 7709,
"DK070C": 7710,
"DK070D": 7711,
"DK071": 7712,
"DK071A": 7713,
"DK071B": 7714,
"DK071C": 7715,
"DK071D": 7716,
"DK071E": 7717,
"DK071F": 7718,
"DK072": 7719,
"DK072A": 7720,
"DK072B": 7721,
"DK072C": 7722,
"DK072D": 7723,
"DK072E": 7724,
"DK072F": 7725,
"DK072G": 7726,
"DK072H": 7727,
"DK072I": 7728,
"DK072J": 7729,
"DK072K": 7730,
"DK072L": 7731,
"DK073": 7732,
"DK073A": 7733,
"DK073B": 7734,
"DK073C": 7735,
"DK073D": 7736,
"DK073E": 7737,
"DK073F": 7738,
"DK074": 7739,
"DK075": 7740,
"DK075A": 7741,
"DK075B": 7742,
"DK075C": 7743,
"DK076": 7744,
"DK076A": 7745,
"DK076B": 7746,
"DK076C": 7747,
"DK076D": 7748,
"DK076E": 7749,
"DK076F": 7750,
"DK076M": 7751,
"DK078": 7752,
"DK079": 7753,
"DK08": 7754,
"DK080": 7755,
"DK081": 7756,
"DK081A": 7757,
"DK081B": 7758,
"DK081C": 7759,
"DK081D": 7760,
"DK082": 7761,
"DK083": 7762,
"DK083A": 7763,
"DK088": 7764,
"DK088A": 7765,
"DK088B": 7766,
"DK088C": 7767,
"DK089": 7768,
"DK089A": 7769,
"DK09": 7770,
"DK090": 7771,
"DK090A": 7772,
"DK090B": 7773,
"DK090C": 7774,
"DK090D": 7775,
"DK091": 7776,
"DK091A": 7777,
"DK091B": 7778,
"DK091C": 7779,
"DK091D": 7780,
"DK091E": 7781,
"DK091F": 7782,
"DK092": 7783,
"DK092A": 7784,
"DK092B": 7785,
"DK092C": 7786,
"DK092D": 7787,
"DK092E": 7788,
"DK092F": 7789,
"DK092G": 7790,
"DK092H": 7791,
"DK092I": 7792,
"DK098": 7793,
"DK098A": 7794,
"DK098B": 7795,
"DK098C": 7796,
"DK098D": 7797,
"DK098E": 7798,
"DK099": 7799,
"DK10": 7800,
"DK100": 7801,
"DK100A": 7802,
"DK100B": 7803,
"DK100C": 7804,
"DK100D": 7805,
"DK100E": 7806,
"DK100F": 7807,
"DK100G": 7808,
"DK101": 7809,
"DK101A": 7810,
"DK101B": 7811,
"DK102": 7812,
"DK102A": 7813,
"DK102B": 7814,
"DK102C": 7815,
"DK102D": 7816,
"DK102E": 7817,
"DK102F": 7818,
"DK102G": 7819,
"DK102H": 7820,
"DK102I": 7821,
"DK102J": 7822,
"DK103": 7823,
"DK103B": 7824,
"DK108": 7825,
"DK108A": 7826,
"DK108B": 7827,
"DK108C": 7828,
"DK108D": 7829,
"DK108E": 7830,
"DK108F": 7831,
"DK108G": 7832,
"DK108H": 7833,
"DK108I": 7834,
"DK108J": 7835,
"DK109": 7836,
"DK11": 7837,
"DK110": 7838,
"DK110A": 7839,
"DK111": 7840,
"DK111A": 7841,
"DK111B": 7842,
"DK111C": 7843,
"DK112": 7844,
"DK112A": 7845,
"DK112B": 7846,
"DK112C": 7847,
"DK112D": 7848,
"DK113": 7849,
"DK113A": 7850,
"DK113B": 7851,
"DK113C": 7852,
"DK113D": 7853,
"DK114": 7854,
"DK114A": 7855,
"DK115": 7856,
"DK115A": 7857,
"DK116": 7858,
"DK116A": 7859,
"DK116B": 7860,
"DK116C": 7861,
"DK117": 7862,
"DK117A": 7863,
"DK117B": 7864,
"DK117C": 7865,
"DK117D": 7866,
"DK118": 7867,
"DK118A": 7868,
"DK118B": 7869,
"DK118C": 7870,
"DK118E": 7871,
"DK118F": 7872,
"DK118G": 7873,
"DK118H": 7874,
"DK118I": 7875,
"DK118J": 7876,
"DK119": 7877,
"DK12": 7878,
"DK120": 7879,
"DK120A": 7880,
"DK120B": 7881,
"DK120C": 7882,
"DK120D": 7883,
"DK121": 7884,
"DK121A": 7885,
"DK121B": 7886,
"DK121C": 7887,
"DK122": 7888,
"DK122A": 7889,
"DK122B": 7890,
"DK13": 7891,
"DK130": 7892,
"DK130A": 7893,
"DK130B": 7894,
"DK130C": 7895,
"DK130D": 7896,
"DK130E": 7897,
"DK130F": 7898,
"DK130G": 7899,
"DK130H": 7900,
"DK130I": 7901,
"DK130J": 7902,
"DK131": 7903,
"DK131A": 7904,
"DK131B": 7905,
"DK132": 7906,
"DK132A": 7907,
"DK132B": 7908,
"DK132C": 7909,
"DK132D": 7910,
"DK132E": 7911,
"DK132F": 7912,
"DK132G": 7913,
"DK132H": 7914,
"DK132I": 7915,
"DK132J": 7916,
"DK132K": 7917,
"DK132M": 7918,
"DK132N": 7919,
"DK133": 7920,
"DK134": 7921,
"DK134A": 7922,
"DK134B": 7923,
"DK134C": 7924,
"DK134D": 7925,
"DK134E": 7926,
"DK135": 7927,
"DK135A": 7928,
"DK136": 7929,
"DK137": 7930,
"DK137A": 7931,
"DK137B": 7932,
"DK137C": 7933,
"DK137D": 7934,
"DK137E": 7935,
"DK137F": 7936,
"DK14": 7937,
"DK140": 7938,
"DK140A": 7939,
"DK140B": 7940,
"DK140C": 7941,
"DK140D": 7942,
"DK141": 7943,
"DK142": 7944,
"DK143": 7945,
"DK143A": 7946,
"DK144": 7947,
"DK144A": 7948,
"DK145": 7949,
"DK145A": 7950,
"DK145B": 7951,
"DK146": 7952,
"DK146A": 7953,
"DK148": 7954,
"DK148A": 7955,
"DK148B": 7956,
"DK148C": 7957,
"DK148D": 7958,
"DK148F": 7959,
"DK148G": 7960,
"DK149": 7961,
"DK20": 7962,
"DK209": 7963,
"DK209A": 7964,
"DK209B": 7965,
"DK209C": 7966,
"DK209D": 7967,
"DK21": 7968,
"DK210": 7969,
"DK219": 7970,
"DK219A": 7971,
"DK219B": 7972,
"DK22": 7973,
"DK220": 7974,
"DK221": 7975,
"DK221A": 7976,
"DK221B": 7977,
"DK221C": 7978,
"DK221D": 7979,
"DK221E": 7980,
"DK221F": 7981,
"DK222": 7982,
"DK222A": 7983,
"DK222B": 7984,
"DK222C": 7985,
"DK223": 7986,
"DK223A": 7987,
"DK224": 7988,
"DK224A": 7989,
"DK225": 7990,
"DK225A": 7991,
"DK225B": 7992,
"DK226": 7993,
"DK227": 7994,
"DK228": 7995,
"DK228A": 7996,
"DK228B": 7997,
"DK228C": 7998,
"DK228D": 7999,
"DK228E": 8000,
"DK228F": 8001,
"DK228G": 8002,
"DK228H": 8003,
"DK228I": 8004,
"DK229": 8005,
"DK23": 8006,
"DK230": 8007,
"DK231": 8008,
"DK238": 8009,
"DK25": 8010,
"DK250": 8011,
"DK250A": 8012,
"DK250B": 8013,
"DK250C": 8014,
"DK250D": 8015,
"DK250E": 8016,
"DK250F": 8017,
"DK251": 8018,
"DK251A": 8019,
"DK251B": 8020,
"DK251C": 8021,
"DK251D": 8022,
"DK251E": 8023,
"DK252": 8024,
"DK252A": 8025,
"DK252B": 8026,
"DK252C": 8027,
"DK252D": 8028,
"DK252E": 8029,
"DK253": 8030,
"DK253A": 8031,
"DK253B": 8032,
"DK253C": 8033,
"DK253D": 8034,
"DK253E": 8035,
"DK254": 8036,
"DK254A": 8037,
"DK254B": 8038,
"DK254C": 8039,
"DK254D": 8040,
"DK254E": 8041,
"DK254F": 8042,
"DK254G": 8043,
"DK254H": 8044,
"DK254I": 8045,
"DK254J": 8046,
"DK255": 8047,
"DK255A": 8048,
"DK255B": 8049,
"DK255C": 8050,
"DK255D": 8051,
"DK255E": 8052,
"DK255F": 8053,
"DK255G": 8054,
"DK255H": 8055,
"DK255I": 8056,
"DK255J": 8057,
"DK256": 8058,
"DK256A": 8059,
"DK256B": 8060,
"DK256C": 8061,
"DK256D": 8062,
"DK256E": 8063,
"DK256F": 8064,
"DK256G": 8065,
"DK256H": 8066,
"DK256I": 8067,
"DK256J": 8068,
"DK257": 8069,
"DK257A": 8070,
"DK257B": 8071,
"DK257C": 8072,
"DK257D": 8073,
"DK257E": 8074,
"DK259": 8075,
"DK259A": 8076,
"DK26": 8077,
"DK260": 8078,
"DK260A": 8079,
"DK261": 8080,
"DK261A": 8081,
"DK262": 8082,
"DK262A": 8083,
"DK263": 8084,
"DK263A": 8085,
"DK264": 8086,
"DK264A": 8087,
"DK264B": 8088,
"DK264C": 8089,
"DK264D": 8090,
"DK265": 8091,
"DK265A": 8092,
"DK265B": 8093,
"DK265C": 8094,
"DK265D": 8095,
"DK266": 8096,
"DK266A": 8097,
"DK266B": 8098,
"DK266C": 8099,
"DK266D": 8100,
"DK267": 8101,
"DK267A": 8102,
"DK269": 8103,
"DK27": 8104,
"DK270": 8105,
"DK271": 8106,
"DK272": 8107,
"DK273": 8108,
"DK274": 8109,
"DK275": 8110,
"DK276": 8111,
"DK277": 8112,
"DK279": 8113,
"DK28": 8114,
"DK280": 8115,
"DK280A": 8116,
"DK280B": 8117,
"DK281": 8118,
"DK281A": 8119,
"DK281C": 8120,
"DK282": 8121,
"DK282A": 8122,
"DK282C": 8123,
"DK283": 8124,
"DK283A": 8125,
"DK283C": 8126,
"DK284": 8127,
"DK284A": 8128,
"DK284B": 8129,
"DK284C": 8130,
"DK284D": 8131,
"DK285": 8132,
"DK285A": 8133,
"DK285B": 8134,
"DK285C": 8135,
"DK285D": 8136,
"DK286": 8137,
"DK286A": 8138,
"DK286B": 8139,
"DK286C": 8140,
"DK286D": 8141,
"DK287": 8142,
"DK287A": 8143,
"DK287B": 8144,
"DK289": 8145,
"DK29": 8146,
"DK290": 8147,
"DK291": 8148,
"DK292": 8149,
"DK293": 8150,
"DK294": 8151,
"DK295": 8152,
"DK296": 8153,
"DK296A": 8154,
"DK296B": 8155,
"DK297": 8156,
"DK298": 8157,
"DK298A": 8158,
"DK299": 8159,
"DK30": 8160,
"DK309": 8161,
"DK31": 8162,
"DK310": 8163,
"DK310A": 8164,
"DK311": 8165,
"DK311A": 8166,
"DK312": 8167,
"DK312A": 8168,
"DK312B": 8169,
"DK312C": 8170,
"DK313": 8171,
"DK314": 8172,
"DK314A": 8173,
"DK315": 8174,
"DK315A": 8175,
"DK315B": 8176,
"DK316": 8177,
"DK316A": 8178,
"DK316B": 8179,
"DK316C": 8180,
"DK316D": 8181,
"DK316E": 8182,
"DK317": 8183,
"DK318": 8184,
"DK318A": 8185,
"DK318B": 8186,
"DK318C": 8187,
"DK318D": 8188,
"DK318E": 8189,
"DK318F": 8190,
"DK318G": 8191,
"DK318H": 8192,
"DK318J": 8193,
"DK319": 8194,
"DK35": 8195,
"DK352": 8196,
"DK353": 8197,
"DK353A": 8198,
"DK353B": 8199,
"DK358": 8200,
"DK358A": 8201,
"DK358B": 8202,
"DK358C": 8203,
"DK36": 8204,
"DK369": 8205,
"DK37": 8206,
"DK379": 8207,
"DK38": 8208,
"DK380": 8209,
"DK381": 8210,
"DK381A": 8211,
"DK382": 8212,
"DK383": 8213,
"DK388": 8214,
"DK388A": 8215,
"DK388B": 8216,
"DK388C": 8217,
"DK388D": 8218,
"DK389": 8219,
"DK40": 8220,
"DK400": 8221,
"DK401": 8222,
"DK402": 8223,
"DK402A": 8224,
"DK403": 8225,
"DK403A": 8226,
"DK403B": 8227,
"DK404": 8228,
"DK409": 8229,
"DK41": 8230,
"DK410": 8231,
"DK411": 8232,
"DK412": 8233,
"DK412A": 8234,
"DK413": 8235,
"DK413A": 8236,
"DK413B": 8237,
"DK414": 8238,
"DK419": 8239,
"DK42": 8240,
"DK420": 8241,
"DK420A": 8242,
"DK420B": 8243,
"DK421": 8244,
"DK429": 8245,
"DK43": 8246,
"DK430": 8247,
"DK431": 8248,
"DK432": 8249,
"DK433": 8250,
"DK434": 8251,
"DK435": 8252,
"DK435A": 8253,
"DK435B": 8254,
"DK435C": 8255,
"DK435D": 8256,
"DK436": 8257,
"DK436A": 8258,
"DK436B": 8259,
"DK437": 8260,
"DK439": 8261,
"DK44": 8262,
"DK440": 8263,
"DK440A": 8264,
"DK440B": 8265,
"DK441": 8266,
"DK449": 8267,
"DK45": 8268,
"DK450": 8269,
"DK450B": 8270,
"DK450C": 8271,
"DK450D": 8272,
"DK450E": 8273,
"DK450F": 8274,
"DK450G": 8275,
"DK450H": 8276,
"DK450I": 8277,
"DK450J": 8278,
"DK450K": 8279,
"DK450L": 8280,
"DK450M": 8281,
"DK451": 8282,
"DK451B": 8283,
"DK451C": 8284,
"DK451D": 8285,
"DK451E": 8286,
"DK451F": 8287,
"DK451G": 8288,
"DK451H": 8289,
"DK451I": 8290,
"DK451J": 8291,
"DK451K": 8292,
"DK451L": 8293,
"DK451M": 8294,
"DK458": 8295,
"DK458B": 8296,
"DK458C": 8297,
"DK458D": 8298,
"DK458E": 8299,
"DK458F": 8300,
"DK458G": 8301,
"DK458H": 8302,
"DK458I": 8303,
"DK458J": 8304,
"DK458K": 8305,
"DK458L": 8306,
"DK458M": 8307,
"DK46": 8308,
"DK460": 8309,
"DK460A": 8310,
"DK460B": 8311,
"DK461": 8312,
"DK469": 8313,
"DK469A": 8314,
"DK50": 8315,
"DK500": 8316,
"DK500A": 8317,
"DK500B": 8318,
"DK500C": 8319,
"DK500D": 8320,
"DK501": 8321,
"DK501D": 8322,
"DK508": 8323,
"DK508A": 8324,
"DK508C": 8325,
"DK508D": 8326,
"DK509": 8327,
"DK51": 8328,
"DK510": 8329,
"DK512": 8330,
"DK513": 8331,
"DK514": 8332,
"DK515": 8333,
"DK515A": 8334,
"DK515B": 8335,
"DK518": 8336,
"DK518B": 8337,
"DK519": 8338,
"DK52": 8339,
"DK520": 8340,
"DK520A": 8341,
"DK520B": 8342,
"DK521": 8343,
"DK521A": 8344,
"DK521B": 8345,
"DK521C": 8346,
"DK522": 8347,
"DK522A": 8348,
"DK522C": 8349,
"DK522D": 8350,
"DK522E": 8351,
"DK522F": 8352,
"DK523": 8353,
"DK528": 8354,
"DK528A": 8355,
"DK528B": 8356,
"DK528C": 8357,
"DK528D": 8358,
"DK528D1": 8359,
"DK528D2": 8360,
"DK529": 8361,
"DK529A": 8362,
"DK529B": 8363,
"DK529B1": 8364,
"DK529C": 8365,
"DK529D": 8366,
"DK529E": 8367,
"DK529F": 8368,
"DK529G": 8369,
"DK529H": 8370,
"DK55": 8371,
"DK550": 8372,
"DK550A": 8373,
"DK550B": 8374,
"DK550C": 8375,
"DK550D": 8376,
"DK550E": 8377,
"DK550F": 8378,
"DK550H": 8379,
"DK551": 8380,
"DK551A": 8381,
"DK551B": 8382,
"DK551C": 8383,
"DK551D": 8384,
"DK551E": 8385,
"DK551F": 8386,
"DK552": 8387,
"DK558": 8388,
"DK558A": 8389,
"DK558B": 8390,
"DK558C": 8391,
"DK558D": 8392,
"DK559": 8393,
"DK56": 8394,
"DK560": 8395,
"DK560A": 8396,
"DK560B": 8397,
"DK561": 8398,
"DK561A": 8399,
"DK561B": 8400,
"DK561C": 8401,
"DK561D": 8402,
"DK562": 8403,
"DK562A": 8404,
"DK562B": 8405,
"DK562C": 8406,
"DK563": 8407,
"DK564": 8408,
"DK564A": 8409,
"DK564B": 8410,
"DK565": 8411,
"DK565A": 8412,
"DK565B": 8413,
"DK565C": 8414,
"DK565D": 8415,
"DK565E": 8416,
"DK566": 8417,
"DK566A": 8418,
"DK566B": 8419,
"DK566C": 8420,
"DK566D": 8421,
"DK566E": 8422,
"DK566F": 8423,
"DK566G": 8424,
"DK566H": 8425,
"DK567": 8426,
"DK57": 8427,
"DK570": 8428,
"DK570A": 8429,
"DK570B": 8430,
"DK570C": 8431,
"DK571": 8432,
"DK571A": 8433,
"DK571B": 8434,
"DK572": 8435,
"DK572A": 8436,
"DK572B": 8437,
"DK572C": 8438,
"DK573": 8439,
"DK573A": 8440,
"DK573B": 8441,
"DK573C": 8442,
"DK573D": 8443,
"DK573E": 8444,
"DK573F": 8445,
"DK574": 8446,
"DK574A": 8447,
"DK575": 8448,
"DK578": 8449,
"DK579": 8450,
"DK579A": 8451,
"DK58": 8452,
"DK580": 8453,
"DK589": 8454,
"DK59": 8455,
"DK590": 8456,
"DK590A": 8457,
"DK591": 8458,
"DK592": 8459,
"DK593": 8460,
"DK593B": 8461,
"DK593C": 8462,
"DK593D": 8463,
"DK594": 8464,
"DK594A": 8465,
"DK598": 8466,
"DK598A": 8467,
"DK598B": 8468,
"DK598C": 8469,
"DK598D": 8470,
"DK598E": 8471,
"DK599": 8472,
"DK60": 8473,
"DK600": 8474,
"DK601": 8475,
"DK602": 8476,
"DK603": 8477,
"DK603A": 8478,
"DK603B": 8479,
"DK603D": 8480,
"DK603E": 8481,
"DK603F": 8482,
"DK604": 8483,
"DK604A": 8484,
"DK605": 8485,
"DK61": 8486,
"DK610": 8487,
"DK610A": 8488,
"DK610B": 8489,
"DK611": 8490,
"DK611A": 8491,
"DK612": 8492,
"DK613": 8493,
"DK614": 8494,
"DK62": 8495,
"DK620": 8496,
"DK621": 8497,
"DK622": 8498,
"DK623": 8499,
"DK624": 8500,
"DK624A": 8501,
"DK624B": 8502,
"DK624C": 8503,
"DK624D": 8504,
"DK624E": 8505,
"DK625": 8506,
"DK625A": 8507,
"DK625B": 8508,
"DK626": 8509,
"DK626A": 8510,
"DK626B": 8511,
"DK626C": 8512,
"DK627": 8513,
"DK628": 8514,
"DK628A": 8515,
"DK628B": 8516,
"DK628C": 8517,
"DK628D": 8518,
"DK628E": 8519,
"DK628F": 8520,
"DK628G": 8521,
"DK628H": 8522,
"DK628I": 8523,
"DK628J": 8524,
"DK628K": 8525,
"DK628L": 8526,
"DK628M": 8527,
"DK628N": 8528,
"DK628P": 8529,
"DK628P1": 8530,
"DK628P1A": 8531,
"DK628P1B": 8532,
"DK628P1C": 8533,
"DK628P2": 8534,
"DK628P2A": 8535,
"DK628P2B": 8536,
"DK628P2C": 8537,
"DK629": 8538,
"DK63": 8539,
"DK630": 8540,
"DK631": 8541,
"DK631A": 8542,
"DK632": 8543,
"DK632A": 8544,
"DK632B": 8545,
"DK632C": 8546,
"DK632D": 8547,
"DK632F": 8548,
"DK632G": 8549,
"DK632H": 8550,
"DK632I": 8551,
"DK632J": 8552,
"DK633": 8553,
"DK634": 8554,
"DK634A": 8555,
"DK634B": 8556,
"DK634C": 8557,
"DK635": 8558,
"DK638": 8559,
"DK638A": 8560,
"DK638B": 8561,
"DK638C": 8562,
"DK638D": 8563,
"DK638E": 8564,
"DK638F": 8565,
"DK639": 8566,
"DK64": 8567,
"DK640": 8568,
"DK641": 8569,
"DK642": 8570,
"DK643": 8571,
"DK644": 8572,
"DK645": 8573,
"DK648": 8574,
"DK649": 8575,
"DK65": 8576,
"DK650": 8577,
"DK650A": 8578,
"DK650B": 8579,
"DK650C": 8580,
"DK650D": 8581,
"DK650E": 8582,
"DK650F": 8583,
"DK650G": 8584,
"DK650H": 8585,
"DK650I": 8586,
"DK650J": 8587,
"DK650K": 8588,
"DK650L": 8589,
"DK650M": 8590,
"DK650N": 8591,
"DK650O": 8592,
"DK650P": 8593,
"DK658": 8594,
"DK658A": 8595,
"DK658B": 8596,
"DK658C": 8597,
"DK658E": 8598,
"DK658F": 8599,
"DK658G": 8600,
"DK658H": 8601,
"DK658I": 8602,
"DK659": 8603,
"DK66": 8604,
"DK660": 8605,
"DK660A": 8606,
"DK660B": 8607,
"DK660C": 8608,
"DK660D": 8609,
"DK660E": 8610,
"DK660F": 8611,
"DK661": 8612,
"DK668": 8613,
"DK668A": 8614,
"DK668C": 8615,
"DK669": 8616,
"DK67": 8617,
"DK670": 8618,
"DK671": 8619,
"DK672": 8620,
"DK673": 8621,
"DK678": 8622,
"DK70": 8623,
"DK700": 8624,
"DK701": 8625,
"DK702": 8626,
"DK703": 8627,
"DK703A": 8628,
"DK704": 8629,
"DK704A": 8630,
"DK704B": 8631,
"DK704C": 8632,
"DK704D": 8633,
"DK709": 8634,
"DK71": 8635,
"DK710": 8636,
"DK710A": 8637,
"DK711": 8638,
"DK711A": 8639,
"DK711B": 8640,
"DK711C": 8641,
"DK712": 8642,
"DK712A": 8643,
"DK713": 8644,
"DK713A": 8645,
"DK714": 8646,
"DK714A": 8647,
"DK715": 8648,
"DK715A": 8649,
"DK715B": 8650,
"DK715D": 8651,
"DK716": 8652,
"DK716A": 8653,
"DK717": 8654,
"DK717A": 8655,
"DK717B": 8656,
"DK718": 8657,
"DK719": 8658,
"DK72": 8659,
"DK720": 8660,
"DK720A": 8661,
"DK720C": 8662,
"DK720D": 8663,
"DK720E": 8664,
"DK720F": 8665,
"DK721": 8666,
"DK729": 8667,
"DK729A": 8668,
"DK73": 8669,
"DK730": 8670,
"DK731": 8671,
"DK732": 8672,
"DK732B": 8673,
"DK732C": 8674,
"DK732D": 8675,
"DK732E": 8676,
"DK732F": 8677,
"DK732G": 8678,
"DK738": 8679,
"DK739": 8680,
"DK74": 8681,
"DK740": 8682,
"DK740A": 8683,
"DK740B": 8684,
"DK741": 8685,
"DK742": 8686,
"DK743": 8687,
"DK743A": 8688,
"DK744": 8689,
"DK745": 8690,
"DK746": 8691,
"DK746B": 8692,
"DK746C": 8693,
"DK746D": 8694,
"DK746E": 8695,
"DK746F": 8696,
"DK746G": 8697,
"DK746H": 8698,
"DK75": 8699,
"DK750": 8700,
"DK750A": 8701,
"DK750B": 8702,
"DK750C": 8703,
"DK750D": 8704,
"DK751": 8705,
"DK752": 8706,
"DK753": 8707,
"DK754": 8708,
"DK754A": 8709,
"DK758": 8710,
"DK759": 8711,
"DK759A": 8712,
"DK76": 8713,
"DK760": 8714,
"DK760A": 8715,
"DK760B": 8716,
"DK760C": 8717,
"DK761": 8718,
"DK761A": 8719,
"DK761B": 8720,
"DK762": 8721,
"DK763": 8722,
"DK764": 8723,
"DK764A": 8724,
"DK765": 8725,
"DK766": 8726,
"DK766A": 8727,
"DK766B": 8728,
"DK767": 8729,
"DK768": 8730,
"DK768A": 8731,
"DK768B": 8732,
"DK768C": 8733,
"DK768D": 8734,
"DK768E": 8735,
"DK769": 8736,
"DK77": 8737,
"DK770": 8738,
"DK778": 8739,
"DK80": 8740,
"DK800": 8741,
"DK800A": 8742,
"DK800D": 8743,
"DK801": 8744,
"DK801A": 8745,
"DK801C": 8746,
"DK802": 8747,
"DK802A": 8748,
"DK802D": 8749,
"DK802E": 8750,
"DK802F": 8751,
"DK803": 8752,
"DK803A": 8753,
"DK803B": 8754,
"DK803C": 8755,
"DK804": 8756,
"DK804A": 8757,
"DK804B": 8758,
"DK804C": 8759,
"DK804D": 8760,
"DK804E": 8761,
"DK805": 8762,
"DK805B": 8763,
"DK805C": 8764,
"DK805E": 8765,
"DK805F": 8766,
"DK805J": 8767,
"DK805K": 8768,
"DK808": 8769,
"DK81": 8770,
"DK810": 8771,
"DK810A": 8772,
"DK810B": 8773,
"DK810C": 8774,
"DK810D": 8775,
"DK811": 8776,
"DK818": 8777,
"DK819": 8778,
"DK82": 8779,
"DK820": 8780,
"DK820A": 8781,
"DK821": 8782,
"DK822": 8783,
"DK823": 8784,
"DK823A": 8785,
"DK823B": 8786,
"DK824": 8787,
"DK828": 8788,
"DK828A": 8789,
"DK828B": 8790,
"DK828C": 8791,
"DK828D": 8792,
"DK828E": 8793,
"DK828F": 8794,
"DK828G": 8795,
"DK828H": 8796,
"DK828I": 8797,
"DK828J": 8798,
"DK828K": 8799,
"DK828L": 8800,
"DK828M": 8801,
"DK829": 8802,
"DK83": 8803,
"DK830": 8804,
"DK830A": 8805,
"DK830B": 8806,
"DK830C": 8807,
"DK830D": 8808,
"DK830E": 8809,
"DK830F": 8810,
"DK830G": 8811,
"DK831": 8812,
"DK831B": 8813,
"DK832": 8814,
"DK833": 8815,
"DK833A": 8816,
"DK833B": 8817,
"DK833C": 8818,
"DK834": 8819,
"DK835": 8820,
"DK838": 8821,
"DK838A": 8822,
"DK838B": 8823,
"DK838C": 8824,
"DK838D": 8825,
"DK838E": 8826,
"DK838F": 8827,
"DK839": 8828,
"DK85": 8829,
"DK850": 8830,
"DK851": 8831,
"DK851A": 8832,
"DK852": 8833,
"DK853": 8834,
"DK858": 8835,
"DK858A": 8836,
"DK858B": 8837,
"DK858C": 8838,
"DK858D": 8839,
"DK858E": 8840,
"DK858F": 8841,
"DK859": 8842,
"DK86": 8843,
"DK860": 8844,
"DK861": 8845,
"DK861A": 8846,
"DK861B": 8847,
"DK861D": 8848,
"DK861E": 8849,
"DK861F": 8850,
"DK862": 8851,
"DK863": 8852,
"DK868": 8853,
"DK868A": 8854,
"DK868B": 8855,
"DK868C": 8856,
"DK868D": 8857,
"DK868E": 8858,
"DK868F": 8859,
"DK868G": 8860,
"DK868H": 8861,
"DK868I": 8862,
"DK868J": 8863,
"DK868K": 8864,
"DK868L": 8865,
"DK868M": 8866,
"DK869": 8867,
"DK87": 8868,
"DK870": 8869,
"DK871": 8870,
"DK90": 8871,
"DK900": 8872,
"DK900B": 8873,
"DK901": 8874,
"DK901A": 8875,
"DK901B": 8876,
"DK902": 8877,
"DK903": 8878,
"DK904": 8879,
"DK904D": 8880,
"DK904E": 8881,
"DK904F": 8882,
"DK908": 8883,
"DK908A": 8884,
"DK908B": 8885,
"DK909": 8886,
"DK91": 8887,
"DK910": 8888,
"DK911": 8889,
"DK911A": 8890,
"DK912": 8891,
"DK912B": 8892,
"DK912C": 8893,
"DK913": 8894,
"DK913A": 8895,
"DK913B": 8896,
"DK913C": 8897,
"DK914": 8898,
"DK914A": 8899,
"DK914B": 8900,
"DK914C": 8901,
"DK914D": 8902,
"DK915": 8903,
"DK918": 8904,
"DK918A": 8905,
"DK918B": 8906,
"DK919": 8907,
"DK92": 8908,
"DK920": 8909,
"DK921": 8910,
"DK922": 8911,
"DK928": 8912,
"DK929": 8913,
"DK93": 8914,
"DK930": 8915,
"DK931": 8916,
"DK938": 8917,
"DL00": 8918,
"DL009": 8919,
"DL009A": 8920,
"DL009B": 8921,
"DL009C": 8922,
"DL01": 8923,
"DL010": 8924,
"DL010A": 8925,
"DL010B": 8926,
"DL010C": 8927,
"DL011": 8928,
"DL02": 8929,
"DL020": 8930,
"DL020A": 8931,
"DL020B": 8932,
"DL020C": 8933,
"DL021": 8934,
"DL021A": 8935,
"DL021B": 8936,
"DL021C": 8937,
"DL022": 8938,
"DL022A": 8939,
"DL022B": 8940,
"DL022C": 8941,
"DL022D": 8942,
"DL022E": 8943,
"DL022F": 8944,
"DL022G": 8945,
"DL022H": 8946,
"DL022I": 8947,
"DL022J": 8948,
"DL022K": 8949,
"DL022L": 8950,
"DL022M": 8951,
"DL022N": 8952,
"DL022O": 8953,
"DL022P": 8954,
"DL022Q": 8955,
"DL022R": 8956,
"DL022S": 8957,
"DL022T": 8958,
"DL023": 8959,
"DL023A": 8960,
"DL023B": 8961,
"DL023C": 8962,
"DL024": 8963,
"DL024A": 8964,
"DL024B": 8965,
"DL024C": 8966,
"DL024D": 8967,
"DL024E": 8968,
"DL024F": 8969,
"DL024G": 8970,
"DL024H": 8971,
"DL024I": 8972,
"DL024J": 8973,
"DL024K": 8974,
"DL024L": 8975,
"DL024M": 8976,
"DL028": 8977,
"DL028A": 8978,
"DL028B": 8979,
"DL028C": 8980,
"DL029": 8981,
"DL029A": 8982,
"DL029B": 8983,
"DL029C": 8984,
"DL03": 8985,
"DL030": 8986,
"DL030A": 8987,
"DL030B": 8988,
"DL030C": 8989,
"DL030D": 8990,
"DL030E": 8991,
"DL030F": 8992,
"DL030G": 8993,
"DL030H": 8994,
"DL030I": 8995,
"DL030J": 8996,
"DL030K": 8997,
"DL031": 8998,
"DL031A": 8999,
"DL031B": 9000,
"DL031C": 9001,
"DL031D": 9002,
"DL031E": 9003,
"DL031F": 9004,
"DL031G": 9005,
"DL031H": 9006,
"DL031I": 9007,
"DL032": 9008,
"DL033": 9009,
"DL033A": 9010,
"DL033B": 9011,
"DL033C": 9012,
"DL033D": 9013,
"DL033E": 9014,
"DL033F": 9015,
"DL038": 9016,
"DL038A": 9017,
"DL038B": 9018,
"DL039": 9019,
"DL04": 9020,
"DL040": 9021,
"DL040A": 9022,
"DL040B": 9023,
"DL040C": 9024,
"DL041": 9025,
"DL042": 9026,
"DL042A": 9027,
"DL043": 9028,
"DL048": 9029,
"DL049": 9030,
"DL05": 9031,
"DL050": 9032,
"DL059": 9033,
"DL08": 9034,
"DL080": 9035,
"DL080A": 9036,
"DL080B": 9037,
"DL080C": 9038,
"DL081": 9039,
"DL088": 9040,
"DL088C": 9041,
"DL088D": 9042,
"DL089": 9043,
"DL10": 9044,
"DL100": 9045,
"DL101": 9046,
"DL102": 9047,
"DL103": 9048,
"DL104": 9049,
"DL105": 9050,
"DL108": 9051,
"DL108A": 9052,
"DL109": 9053,
"DL11": 9054,
"DL110": 9055,
"DL111": 9056,
"DL118": 9057,
"DL119": 9058,
"DL12": 9059,
"DL120": 9060,
"DL121": 9061,
"DL121A": 9062,
"DL122": 9063,
"DL122A": 9064,
"DL123": 9065,
"DL128": 9066,
"DL129": 9067,
"DL13": 9068,
"DL130": 9069,
"DL131": 9070,
"DL138": 9071,
"DL138A": 9072,
"DL138B": 9073,
"DL138C": 9074,
"DL139": 9075,
"DL14": 9076,
"DL149": 9077,
"DL20": 9078,
"DL200": 9079,
"DL208": 9080,
"DL208B": 9081,
"DL208C": 9082,
"DL208D": 9083,
"DL209": 9084,
"DL21": 9085,
"DL210": 9086,
"DL210B": 9087,
"DL210C": 9088,
"DL210D": 9089,
"DL210E": 9090,
"DL211": 9091,
"DL211A": 9092,
"DL218": 9093,
"DL218A": 9094,
"DL218B": 9095,
"DL218D": 9096,
"DL218E": 9097,
"DL218F": 9098,
"DL219": 9099,
"DL22": 9100,
"DL229": 9101,
"DL229B": 9102,
"DL23": 9103,
"DL230": 9104,
"DL230A": 9105,
"DL230B": 9106,
"DL230C": 9107,
"DL230D": 9108,
"DL230E": 9109,
"DL231": 9110,
"DL231A": 9111,
"DL232": 9112,
"DL232A": 9113,
"DL232B": 9114,
"DL232C": 9115,
"DL232D": 9116,
"DL232E": 9117,
"DL233": 9118,
"DL233A": 9119,
"DL234": 9120,
"DL234A": 9121,
"DL235": 9122,
"DL235A": 9123,
"DL235B": 9124,
"DL235C": 9125,
"DL235D": 9126,
"DL235E": 9127,
"DL235F": 9128,
"DL235G": 9129,
"DL235H": 9130,
"DL235I": 9131,
"DL236": 9132,
"DL236A": 9133,
"DL237": 9134,
"DL237A": 9135,
"DL238": 9136,
"DL238A": 9137,
"DL238B": 9138,
"DL238C": 9139,
"DL239": 9140,
"DL239A": 9141,
"DL24": 9142,
"DL240": 9143,
"DL240A": 9144,
"DL241": 9145,
"DL241A": 9146,
"DL242": 9147,
"DL242A": 9148,
"DL243": 9149,
"DL243A": 9150,
"DL244": 9151,
"DL244A": 9152,
"DL245": 9153,
"DL245A": 9154,
"DL245B": 9155,
"DL245C": 9156,
"DL245D": 9157,
"DL245E": 9158,
"DL246": 9159,
"DL246A": 9160,
"DL247": 9161,
"DL247A": 9162,
"DL248": 9163,
"DL248A": 9164,
"DL249": 9165,
"DL249A": 9166,
"DL25": 9167,
"DL250": 9168,
"DL251": 9169,
"DL252": 9170,
"DL253": 9171,
"DL253A": 9172,
"DL253B": 9173,
"DL254": 9174,
"DL255": 9175,
"DL258": 9176,
"DL259": 9177,
"DL259A": 9178,
"DL26": 9179,
"DL269": 9180,
"DL269B": 9181,
"DL27": 9182,
"DL270": 9183,
"DL270A": 9184,
"DL270B": 9185,
"DL271": 9186,
"DL271A": 9187,
"DL271B": 9188,
"DL271C": 9189,
"DL272": 9190,
"DL278": 9191,
"DL278A": 9192,
"DL278B": 9193,
"DL279": 9194,
"DL28": 9195,
"DL280": 9196,
"DL280A": 9197,
"DL280B": 9198,
"DL280C": 9199,
"DL281": 9200,
"DL282": 9201,
"DL282A": 9202,
"DL282B": 9203,
"DL282C": 9204,
"DL282D": 9205,
"DL29": 9206,
"DL290": 9207,
"DL291": 9208,
"DL292": 9209,
"DL293": 9210,
"DL298": 9211,
"DL298A": 9212,
"DL298B": 9213,
"DL298C": 9214,
"DL298D": 9215,
"DL299": 9216,
"DL30": 9217,
"DL300": 9218,
"DL301": 9219,
"DL301A": 9220,
"DL301B": 9221,
"DL301C": 9222,
"DL302": 9223,
"DL302A": 9224,
"DL303": 9225,
"DL304": 9226,
"DL305": 9227,
"DL305A": 9228,
"DL308": 9229,
"DL308A": 9230,
"DL308B": 9231,
"DL308D": 9232,
"DL308F": 9233,
"DL308G": 9234,
"DL308H": 9235,
"DL308I": 9236,
"DL309": 9237,
"DL40": 9238,
"DL400": 9239,
"DL400B": 9240,
"DL400C": 9241,
"DL400D": 9242,
"DL401": 9243,
"DL401B": 9244,
"DL402": 9245,
"DL402B": 9246,
"DL403": 9247,
"DL403A": 9248,
"DL403B": 9249,
"DL404": 9250,
"DL405": 9251,
"DL408": 9252,
"DL408A": 9253,
"DL408B": 9254,
"DL408C": 9255,
"DL408D": 9256,
"DL408E": 9257,
"DL409": 9258,
"DL41": 9259,
"DL410": 9260,
"DL411": 9261,
"DL413": 9262,
"DL414": 9263,
"DL415": 9264,
"DL418": 9265,
"DL418A": 9266,
"DL419": 9267,
"DL42": 9268,
"DL429": 9269,
"DL429A": 9270,
"DL429B": 9271,
"DL43": 9272,
"DL430": 9273,
"DL431": 9274,
"DL432": 9275,
"DL433": 9276,
"DL438": 9277,
"DL438A": 9278,
"DL438B": 9279,
"DL438C": 9280,
"DL438D": 9281,
"DL438E": 9282,
"DL439": 9283,
"DL44": 9284,
"DL440": 9285,
"DL441": 9286,
"DL442": 9287,
"DL443": 9288,
"DL444": 9289,
"DL444A": 9290,
"DL448": 9291,
"DL448A": 9292,
"DL448B": 9293,
"DL448C": 9294,
"DL448D": 9295,
"DL449": 9296,
"DL45": 9297,
"DL459": 9298,
"DL50": 9299,
"DL500": 9300,
"DL501": 9301,
"DL502": 9302,
"DL502A": 9303,
"DL502B": 9304,
"DL503": 9305,
"DL504": 9306,
"DL505": 9307,
"DL506": 9308,
"DL506A": 9309,
"DL508": 9310,
"DL508A": 9311,
"DL508B": 9312,
"DL508C": 9313,
"DL508D": 9314,
"DL508E": 9315,
"DL509": 9316,
"DL51": 9317,
"DL510": 9318,
"DL511": 9319,
"DL511A": 9320,
"DL512": 9321,
"DL518": 9322,
"DL518A": 9323,
"DL519": 9324,
"DL52": 9325,
"DL529": 9326,
"DL53": 9327,
"DL530": 9328,
"DL531": 9329,
"DL532": 9330,
"DL533": 9331,
"DL538": 9332,
"DL538A": 9333,
"DL538B": 9334,
"DL538C": 9335,
"DL539": 9336,
"DL539A": 9337,
"DL539B": 9338,
"DL54": 9339,
"DL540": 9340,
"DL548": 9341,
"DL55": 9342,
"DL550": 9343,
"DL551": 9344,
"DL552": 9345,
"DL558": 9346,
"DL559": 9347,
"DL56": 9348,
"DL560": 9349,
"DL561": 9350,
"DL562": 9351,
"DL562B": 9352,
"DL562C": 9353,
"DL562D": 9354,
"DL563": 9355,
"DL564": 9356,
"DL568": 9357,
"DL568A": 9358,
"DL568B": 9359,
"DL568C": 9360,
"DL569": 9361,
"DL57": 9362,
"DL570": 9363,
"DL570A": 9364,
"DL570B": 9365,
"DL570C": 9366,
"DL571": 9367,
"DL572": 9368,
"DL573": 9369,
"DL574": 9370,
"DL574B": 9371,
"DL575": 9372,
"DL578": 9373,
"DL578A": 9374,
"DL578B": 9375,
"DL578C": 9376,
"DL579": 9377,
"DL58": 9378,
"DL580": 9379,
"DL581": 9380,
"DL589": 9381,
"DL59": 9382,
"DL590": 9383,
"DL598": 9384,
"DL598A": 9385,
"DL599": 9386,
"DL60": 9387,
"DL600": 9388,
"DL601": 9389,
"DL602": 9390,
"DL603": 9391,
"DL603A": 9392,
"DL603B": 9393,
"DL604": 9394,
"DL605": 9395,
"DL608": 9396,
"DL608A": 9397,
"DL608B": 9398,
"DL608C": 9399,
"DL608D": 9400,
"DL608E": 9401,
"DL608F": 9402,
"DL608G": 9403,
"DL608H": 9404,
"DL608I": 9405,
"DL609": 9406,
"DL62": 9407,
"DL620": 9408,
"DL628": 9409,
"DL628A": 9410,
"DL63": 9411,
"DL630": 9412,
"DL631": 9413,
"DL632": 9414,
"DL638": 9415,
"DL638A": 9416,
"DL639": 9417,
"DL64": 9418,
"DL640": 9419,
"DL648": 9420,
"DL649": 9421,
"DL65": 9422,
"DL650": 9423,
"DL651": 9424,
"DL652": 9425,
"DL658": 9426,
"DL658B": 9427,
"DL658C": 9428,
"DL659": 9429,
"DL66": 9430,
"DL660": 9431,
"DL661": 9432,
"DL662": 9433,
"DL663": 9434,
"DL664": 9435,
"DL668": 9436,
"DL668A": 9437,
"DL669": 9438,
"DL67": 9439,
"DL670": 9440,
"DL671": 9441,
"DL671A": 9442,
"DL671B": 9443,
"DL671C": 9444,
"DL671D": 9445,
"DL678": 9446,
"DL678A": 9447,
"DL678B": 9448,
"DL678C": 9449,
"DL678D": 9450,
"DL679": 9451,
"DL68": 9452,
"DL680": 9453,
"DL681": 9454,
"DL682": 9455,
"DL683": 9456,
"DL688": 9457,
"DL689": 9458,
"DL70": 9459,
"DL700": 9460,
"DL701": 9461,
"DL702": 9462,
"DL702A": 9463,
"DL703": 9464,
"DL704": 9465,
"DL705": 9466,
"DL708": 9467,
"DL708A": 9468,
"DL708B": 9469,
"DL708C": 9470,
"DL708D": 9471,
"DL708E": 9472,
"DL708F": 9473,
"DL708G": 9474,
"DL708H": 9475,
"DL708I": 9476,
"DL709": 9477,
"DL71": 9478,
"DL710": 9479,
"DL711": 9480,
"DL718": 9481,
"DL718A": 9482,
"DL718B": 9483,
"DL718D": 9484,
"DL718E": 9485,
"DL719": 9486,
"DL72": 9487,
"DL720": 9488,
"DL721": 9489,
"DL721A": 9490,
"DL721B": 9491,
"DL722": 9492,
"DL728": 9493,
"DL729": 9494,
"DL73": 9495,
"DL730": 9496,
"DL731": 9497,
"DL732": 9498,
"DL738": 9499,
"DL738A": 9500,
"DL738B": 9501,
"DL738C": 9502,
"DL738D": 9503,
"DL738E": 9504,
"DL738F": 9505,
"DL738G": 9506,
"DL738H": 9507,
"DL739": 9508,
"DL74": 9509,
"DL740": 9510,
"DL741": 9511,
"DL742": 9512,
"DL742A": 9513,
"DL743": 9514,
"DL743A": 9515,
"DL743B": 9516,
"DL744": 9517,
"DL744A": 9518,
"DL748": 9519,
"DL748A": 9520,
"DL749": 9521,
"DL75": 9522,
"DL750": 9523,
"DL751": 9524,
"DL752": 9525,
"DL752A": 9526,
"DL758": 9527,
"DL759": 9528,
"DL80": 9529,
"DL809": 9530,
"DL81": 9531,
"DL810": 9532,
"DL811": 9533,
"DL811A": 9534,
"DL812": 9535,
"DL813": 9536,
"DL814": 9537,
"DL814A": 9538,
"DL814B": 9539,
"DL814C": 9540,
"DL814D": 9541,
"DL814E": 9542,
"DL814EA": 9543,
"DL814EB": 9544,
"DL814EC": 9545,
"DL814F": 9546,
"DL814G": 9547,
"DL815": 9548,
"DL815A": 9549,
"DL816": 9550,
"DL816A": 9551,
"DL816B": 9552,
"DL816C": 9553,
"DL817": 9554,
"DL817A": 9555,
"DL817B": 9556,
"DL817C": 9557,
"DL817E": 9558,
"DL817F": 9559,
"DL817G": 9560,
"DL818": 9561,
"DL818B": 9562,
"DL818D": 9563,
"DL818E": 9564,
"DL818G": 9565,
"DL818H": 9566,
"DL818I": 9567,
"DL818M": 9568,
"DL819": 9569,
"DL82": 9570,
"DL829": 9571,
"DL829A": 9572,
"DL829B": 9573,
"DL83": 9574,
"DL839": 9575,
"DL839A": 9576,
"DL839B": 9577,
"DL839C": 9578,
"DL839D": 9579,
"DL84": 9580,
"DL849": 9581,
"DL849A": 9582,
"DL849B": 9583,
"DL85": 9584,
"DL850": 9585,
"DL851": 9586,
"DL852": 9587,
"DL853": 9588,
"DL853A": 9589,
"DL858": 9590,
"DL858A": 9591,
"DL858B": 9592,
"DL858C": 9593,
"DL858D": 9594,
"DL858E": 9595,
"DL858F": 9596,
"DL858G": 9597,
"DL858H": 9598,
"DL858I": 9599,
"DL858J": 9600,
"DL858K": 9601,
"DL858L": 9602,
"DL858M": 9603,
"DL858N": 9604,
"DL858O": 9605,
"DL858P": 9606,
"DL858Q": 9607,
"DL859": 9608,
"DL86": 9609,
"DL869": 9610,
"DL87": 9611,
"DL870": 9612,
"DL871": 9613,
"DL872": 9614,
"DL878": 9615,
"DL878A": 9616,
"DL879": 9617,
"DL88": 9618,
"DL889": 9619,
"DL889C": 9620,
"DL89": 9621,
"DL890": 9622,
"DL890A": 9623,
"DL891": 9624,
"DL891A": 9625,
"DL892": 9626,
"DL892A": 9627,
"DL893": 9628,
"DL893A": 9629,
"DL899": 9630,
"DL90": 9631,
"DL900": 9632,
"DL900A": 9633,
"DL900B": 9634,
"DL901": 9635,
"DL902": 9636,
"DL903": 9637,
"DL904": 9638,
"DL905": 9639,
"DL905A": 9640,
"DL905B": 9641,
"DL905C": 9642,
"DL905D": 9643,
"DL906": 9644,
"DL906A": 9645,
"DL906B": 9646,
"DL906C": 9647,
"DL908": 9648,
"DL908B": 9649,
"DL908C": 9650,
"DL908D": 9651,
"DL908E": 9652,
"DL908F": 9653,
"DL908G": 9654,
"DL908H": 9655,
"DL908I": 9656,
"DL908J": 9657,
"DL908K": 9658,
"DL909": 9659,
"DL91": 9660,
"DL910": 9661,
"DL910A": 9662,
"DL918": 9663,
"DL918A": 9664,
"DL918B": 9665,
"DL919": 9666,
"DL92": 9667,
"DL920": 9668,
"DL920A": 9669,
"DL920B": 9670,
"DL920C": 9671,
"DL921": 9672,
"DL921A": 9673,
"DL922": 9674,
"DL923": 9675,
"DL923A": 9676,
"DL923B": 9677,
"DL928": 9678,
"DL928A": 9679,
"DL928B": 9680,
"DL928C": 9681,
"DL928D": 9682,
"DL928E": 9683,
"DL928F": 9684,
"DL928G": 9685,
"DL929": 9686,
"DL929A": 9687,
"DL929B": 9688,
"DL93": 9689,
"DL930": 9690,
"DL930A": 9691,
"DL931": 9692,
"DL932": 9693,
"DL932A": 9694,
"DL932B": 9695,
"DL932C": 9696,
"DL94": 9697,
"DL940": 9698,
"DL940B": 9699,
"DL941": 9700,
"DL942": 9701,
"DL942B": 9702,
"DL943": 9703,
"DL944": 9704,
"DL945": 9705,
"DL946": 9706,
"DL948": 9707,
"DL949": 9708,
"DL95": 9709,
"DL950": 9710,
"DL950A": 9711,
"DL951": 9712,
"DL958": 9713,
"DL958A": 9714,
"DL958B": 9715,
"DL959": 9716,
"DL97": 9717,
"DL979": 9718,
"DL979A": 9719,
"DL979B": 9720,
"DL979C": 9721,
"DL979E": 9722,
"DL98": 9723,
"DL980": 9724,
"DL981": 9725,
"DL981A": 9726,
"DL981B": 9727,
"DL982": 9728,
"DL983": 9729,
"DL984": 9730,
"DL984A": 9731,
"DL984B": 9732,
"DL984C": 9733,
"DL984D": 9734,
"DL984E": 9735,
"DL985": 9736,
"DL985A": 9737,
"DL985B": 9738,
"DL985C": 9739,
"DL985D": 9740,
"DL985E": 9741,
"DL985F": 9742,
"DL985G": 9743,
"DL985H": 9744,
"DL986": 9745,
"DL987": 9746,
"DL987A": 9747,
"DL987B": 9748,
"DL988": 9749,
"DL988A": 9750,
"DL988B": 9751,
"DL988D": 9752,
"DL988E": 9753,
"DL989": 9754,
"DL99": 9755,
"DL990": 9756,
"DL990A": 9757,
"DL990B": 9758,
"DL990C": 9759,
"DL998": 9760,
"DL998A": 9761,
"DL998B": 9762,
"DM00": 9763,
"DM000": 9764,
"DM000A": 9765,
"DM000B": 9766,
"DM001": 9767,
"DM001A": 9768,
"DM001B": 9769,
"DM002": 9770,
"DM002A": 9771,
"DM002B": 9772,
"DM008": 9773,
"DM009": 9774,
"DM01": 9775,
"DM010": 9776,
"DM011": 9777,
"DM012": 9778,
"DM013": 9779,
"DM014": 9780,
"DM015": 9781,
"DM016": 9782,
"DM018": 9783,
"DM02": 9784,
"DM020": 9785,
"DM021": 9786,
"DM022": 9787,
"DM023": 9788,
"DM028": 9789,
"DM029": 9790,
"DM03": 9791,
"DM030": 9792,
"DM031": 9793,
"DM031A": 9794,
"DM032": 9795,
"DM032A": 9796,
"DM032B": 9797,
"DM036": 9798,
"DM05": 9799,
"DM050": 9800,
"DM051": 9801,
"DM051A": 9802,
"DM051B": 9803,
"DM051C": 9804,
"DM051D": 9805,
"DM051E": 9806,
"DM051F": 9807,
"DM052": 9808,
"DM053": 9809,
"DM058": 9810,
"DM059": 9811,
"DM06": 9812,
"DM060": 9813,
"DM061": 9814,
"DM062": 9815,
"DM063": 9816,
"DM064": 9817,
"DM068": 9818,
"DM069": 9819,
"DM07": 9820,
"DM070": 9821,
"DM071": 9822,
"DM072": 9823,
"DM073": 9824,
"DM073A": 9825,
"DM073B": 9826,
"DM074": 9827,
"DM075": 9828,
"DM076": 9829,
"DM08": 9830,
"DM080": 9831,
"DM080A": 9832,
"DM080B": 9833,
"DM081": 9834,
"DM082": 9835,
"DM082A": 9836,
"DM082B": 9837,
"DM083": 9838,
"DM084": 9839,
"DM088": 9840,
"DM088A": 9841,
"DM089": 9842,
"DM09": 9843,
"DM090": 9844,
"DM091": 9845,
"DM092": 9846,
"DM098": 9847,
"DM10": 9848,
"DM100": 9849,
"DM100A": 9850,
"DM100B": 9851,
"DM100C": 9852,
"DM100D": 9853,
"DM101": 9854,
"DM102": 9855,
"DM103": 9856,
"DM104": 9857,
"DM109": 9858,
"DM11": 9859,
"DM110": 9860,
"DM111": 9861,
"DM112": 9862,
"DM112A": 9863,
"DM118": 9864,
"DM119": 9865,
"DM12": 9866,
"DM120": 9867,
"DM121": 9868,
"DM122": 9869,
"DM123": 9870,
"DM124": 9871,
"DM125": 9872,
"DM128": 9873,
"DM128A": 9874,
"DM13": 9875,
"DM130": 9876,
"DM131": 9877,
"DM131A": 9878,
"DM138": 9879,
"DM138A": 9880,
"DM139": 9881,
"DM14": 9882,
"DM140": 9883,
"DM141": 9884,
"DM142": 9885,
"DM143": 9886,
"DM144": 9887,
"DM145": 9888,
"DM146": 9889,
"DM148": 9890,
"DM15": 9891,
"DM150": 9892,
"DM151": 9893,
"DM152": 9894,
"DM153": 9895,
"DM153A": 9896,
"DM154": 9897,
"DM158": 9898,
"DM159": 9899,
"DM16": 9900,
"DM160": 9901,
"DM161": 9902,
"DM161A": 9903,
"DM162": 9904,
"DM163": 9905,
"DM163A": 9906,
"DM164": 9907,
"DM165": 9908,
"DM165A": 9909,
"DM166": 9910,
"DM167": 9911,
"DM167A": 9912,
"DM169": 9913,
"DM17": 9914,
"DM170": 9915,
"DM171": 9916,
"DM171B": 9917,
"DM172": 9918,
"DM173": 9919,
"DM173A": 9920,
"DM174": 9921,
"DM175": 9922,
"DM175A": 9923,
"DM179": 9924,
"DM18": 9925,
"DM180": 9926,
"DM181": 9927,
"DM181A": 9928,
"DM182": 9929,
"DM183": 9930,
"DM183A": 9931,
"DM184": 9932,
"DM185": 9933,
"DM185A": 9934,
"DM189": 9935,
"DM19": 9936,
"DM190": 9937,
"DM190A": 9938,
"DM191": 9939,
"DM191A": 9940,
"DM192": 9941,
"DM192A": 9942,
"DM198": 9943,
"DM198A": 9944,
"DM199": 9945,
"DM20": 9946,
"DM200": 9947,
"DM200A": 9948,
"DM200B": 9949,
"DM200C": 9950,
"DM200E": 9951,
"DM200F": 9952,
"DM201": 9953,
"DM201A": 9954,
"DM202": 9955,
"DM203": 9956,
"DM203A": 9957,
"DM203B": 9958,
"DM203C": 9959,
"DM204": 9960,
"DM205": 9961,
"DM205A": 9962,
"DM205B": 9963,
"DM205C": 9964,
"DM205E": 9965,
"DM206": 9966,
"DM21": 9967,
"DM210": 9968,
"DM211": 9969,
"DM212": 9970,
"DM213": 9971,
"DM214": 9972,
"DM215": 9973,
"DM215A": 9974,
"DM215D": 9975,
"DM215E": 9976,
"DM215F": 9977,
"DM215G": 9978,
"DM216": 9979,
"DM216H": 9980,
"DM216I": 9981,
"DM216J": 9982,
"DM216K": 9983,
"DM216L": 9984,
"DM216M": 9985,
"DM216N": 9986,
"DM216O": 9987,
"DM216P": 9988,
"DM217": 9989,
"DM218": 9990,
"DM218A": 9991,
"DM218B": 9992,
"DM218C": 9993,
"DM218D": 9994,
"DM218E": 9995,
"DM218F": 9996,
"DM218G": 9997,
"DM218H": 9998,
"DM218J": 9999,
"DM219": 10000,
"DM22": 10001,
"DM220": 10002,
"DM221": 10003,
"DM222": 10004,
"DM222A": 10005,
"DM223": 10006,
"DM224": 10007,
"DM228": 10008,
"DM228A": 10009,
"DM229": 10010,
"DM23": 10011,
"DM230": 10012,
"DM231": 10013,
"DM232": 10014,
"DM233": 10015,
"DM233A": 10016,
"DM233B": 10017,
"DM234": 10018,
"DM235": 10019,
"DM236": 10020,
"DM236A": 10021,
"DM236B": 10022,
"DM236C": 10023,
"DM236D": 10024,
"DM238": 10025,
"DM238A": 10026,
"DM238B": 10027,
"DM239": 10028,
"DM24": 10029,
"DM240": 10030,
"DM241": 10031,
"DM242": 10032,
"DM242A": 10033,
"DM242B": 10034,
"DM243": 10035,
"DM243A": 10036,
"DM243B": 10037,
"DM244": 10038,
"DM244A": 10039,
"DM244B": 10040,
"DM244C": 10041,
"DM244D": 10042,
"DM244E": 10043,
"DM244E1": 10044,
"DM244E2": 10045,
"DM245": 10046,
"DM246": 10047,
"DM246A": 10048,
"DM246B": 10049,
"DM246C": 10050,
"DM246D": 10051,
"DM246E": 10052,
"DM246F": 10053,
"DM246G": 10054,
"DM246H": 10055,
"DM246I": 10056,
"DM246J": 10057,
"DM246K": 10058,
"DM246L": 10059,
"DM246M": 10060,
"DM246N": 10061,
"DM246O": 10062,
"DM247": 10063,
"DM248": 10064,
"DM248A": 10065,
"DM249": 10066,
"DM25": 10067,
"DM250": 10068,
"DM251": 10069,
"DM252": 10070,
"DM253": 10071,
"DM254": 10072,
"DM255": 10073,
"DM256": 10074,
"DM256A": 10075,
"DM257": 10076,
"DM258": 10077,
"DM258B": 10078,
"DM259": 10079,
"DM30": 10080,
"DM300": 10081,
"DM301": 10082,
"DM301A": 10083,
"DM302": 10084,
"DM303": 10085,
"DM308": 10086,
"DM308A": 10087,
"DM31": 10088,
"DM310": 10089,
"DM310A": 10090,
"DM310B": 10091,
"DM311": 10092,
"DM311A": 10093,
"DM311B": 10094,
"DM312": 10095,
"DM313": 10096,
"DM313A": 10097,
"DM314": 10098,
"DM315": 10099,
"DM315A": 10100,
"DM316": 10101,
"DM316A": 10102,
"DM317": 10103,
"DM318": 10104,
"DM318A": 10105,
"DM319": 10106,
"DM32": 10107,
"DM320": 10108,
"DM321": 10109,
"DM328": 10110,
"DM329": 10111,
"DM33": 10112,
"DM330": 10113,
"DM331": 10114,
"DM332": 10115,
"DM339": 10116,
"DM34": 10117,
"DM340": 10118,
"DM341": 10119,
"DM342": 10120,
"DM342A": 10121,
"DM342B": 10122,
"DM348": 10123,
"DM348B": 10124,
"DM349": 10125,
"DM35": 10126,
"DM350": 10127,
"DM350A": 10128,
"DM350B": 10129,
"DM350C": 10130,
"DM350D": 10131,
"DM350E": 10132,
"DM351": 10133,
"DM351A": 10134,
"DM351B": 10135,
"DM352": 10136,
"DM353": 10137,
"DM354": 10138,
"DM355": 10139,
"DM356": 10140,
"DM357": 10141,
"DM358": 10142,
"DM359": 10143,
"DM36": 10144,
"DM360": 10145,
"DM361": 10146,
"DM362": 10147,
"DM363": 10148,
"DM364": 10149,
"DM368": 10150,
"DM40": 10151,
"DM400": 10152,
"DM401": 10153,
"DM401A": 10154,
"DM402": 10155,
"DM402A": 10156,
"DM403": 10157,
"DM404": 10158,
"DM404A": 10159,
"DM404B": 10160,
"DM404C": 10161,
"DM405": 10162,
"DM41": 10163,
"DM410": 10164,
"DM410A": 10165,
"DM411": 10166,
"DM411A": 10167,
"DM412": 10168,
"DM413": 10169,
"DM413A": 10170,
"DM414": 10171,
"DM414A": 10172,
"DM414B": 10173,
"DM414C": 10174,
"DM414D": 10175,
"DM414E": 10176,
"DM414F": 10177,
"DM415": 10178,
"DM415A": 10179,
"DM415B": 10180,
"DM418": 10181,
"DM419": 10182,
"DM42": 10183,
"DM420": 10184,
"DM421": 10185,
"DM429": 10186,
"DM43": 10187,
"DM430": 10188,
"DM431": 10189,
"DM432": 10190,
"DM432A": 10191,
"DM433": 10192,
"DM434": 10193,
"DM434A": 10194,
"DM435": 10195,
"DM436": 10196,
"DM438": 10197,
"DM439": 10198,
"DM45": 10199,
"DM459": 10200,
"DM46": 10201,
"DM460": 10202,
"DM461": 10203,
"DM462": 10204,
"DM463": 10205,
"DM463A": 10206,
"DM464": 10207,
"DM465": 10208,
"DM465A": 10209,
"DM468": 10210,
"DM468A": 10211,
"DM469": 10212,
"DM47": 10213,
"DM470": 10214,
"DM470A": 10215,
"DM471": 10216,
"DM471A": 10217,
"DM471B": 10218,
"DM471C": 10219,
"DM472": 10220,
"DM472A": 10221,
"DM472B": 10222,
"DM478": 10223,
"DM478A": 10224,
"DM478B": 10225,
"DM478C": 10226,
"DM478D": 10227,
"DM478E": 10228,
"DM479": 10229,
"DM48": 10230,
"DM480": 10231,
"DM481": 10232,
"DM481A": 10233,
"DM482": 10234,
"DM483": 10235,
"DM484": 10236,
"DM485": 10237,
"DM485A": 10238,
"DM488": 10239,
"DM488A": 10240,
"DM489": 10241,
"DM49": 10242,
"DM490": 10243,
"DM491": 10244,
"DM492": 10245,
"DM493": 10246,
"DM494": 10247,
"DM495": 10248,
"DM498": 10249,
"DM50": 10250,
"DM500": 10251,
"DM500A": 10252,
"DM500B": 10253,
"DM500C": 10254,
"DM500D": 10255,
"DM500E": 10256,
"DM500F": 10257,
"DM501": 10258,
"DM501A": 10259,
"DM501B": 10260,
"DM501C": 10261,
"DM501D": 10262,
"DM501E": 10263,
"DM501F": 10264,
"DM502": 10265,
"DM503": 10266,
"DM508": 10267,
"DM509": 10268,
"DM51": 10269,
"DM510": 10270,
"DM510A": 10271,
"DM510G": 10272,
"DM511": 10273,
"DM511A": 10274,
"DM511B": 10275,
"DM511C": 10276,
"DM511D": 10277,
"DM511E": 10278,
"DM511F": 10279,
"DM511H": 10280,
"DM511I": 10281,
"DM512": 10282,
"DM512A": 10283,
"DM512B": 10284,
"DM512C": 10285,
"DM512D": 10286,
"DM512E": 10287,
"DM512F": 10288,
"DM512G": 10289,
"DM513": 10290,
"DM513A": 10291,
"DM513B": 10292,
"DM513C": 10293,
"DM514": 10294,
"DM518": 10295,
"DM519": 10296,
"DM53": 10297,
"DM530": 10298,
"DM530A": 10299,
"DM531": 10300,
"DM532": 10301,
"DM532A": 10302,
"DM533": 10303,
"DM533A": 10304,
"DM533B": 10305,
"DM538": 10306,
"DM539": 10307,
"DM54": 10308,
"DM540": 10309,
"DM540A": 10310,
"DM540B": 10311,
"DM541": 10312,
"DM541A": 10313,
"DM541B": 10314,
"DM541C": 10315,
"DM541D": 10316,
"DM542": 10317,
"DM543": 10318,
"DM544": 10319,
"DM545": 10320,
"DM546": 10321,
"DM548": 10322,
"DM549": 10323,
"DM60": 10324,
"DM600": 10325,
"DM600A": 10326,
"DM601": 10327,
"DM602": 10328,
"DM608": 10329,
"DM608A": 10330,
"DM608A1": 10331,
"DM609": 10332,
"DM61": 10333,
"DM610": 10334,
"DM611": 10335,
"DM612": 10336,
"DM613": 10337,
"DM614": 10338,
"DM615": 10339,
"DM619": 10340,
"DM62": 10341,
"DM620": 10342,
"DM620A": 10343,
"DM621": 10344,
"DM621A": 10345,
"DM622": 10346,
"DM622A": 10347,
"DM623": 10348,
"DM624": 10349,
"DM625": 10350,
"DM625A": 10351,
"DM626": 10352,
"DM626A": 10353,
"DM628": 10354,
"DM628A": 10355,
"DM628B": 10356,
"DM629": 10357,
"DM63": 10358,
"DM630": 10359,
"DM631": 10360,
"DM632": 10361,
"DM633": 10362,
"DM638": 10363,
"DM65": 10364,
"DM650": 10365,
"DM651": 10366,
"DM652": 10367,
"DM653": 10368,
"DM654": 10369,
"DM658": 10370,
"DM658A": 10371,
"DM658B": 10372,
"DM659": 10373,
"DM659A": 10374,
"DM659B": 10375,
"DM66": 10376,
"DM660": 10377,
"DM661": 10378,
"DM661A": 10379,
"DM662": 10380,
"DM663": 10381,
"DM664": 10382,
"DM665": 10383,
"DM67": 10384,
"DM670": 10385,
"DM671": 10386,
"DM672": 10387,
"DM673": 10388,
"DM673A": 10389,
"DM674": 10390,
"DM678": 10391,
"DM679": 10392,
"DM68": 10393,
"DM680": 10394,
"DM680G": 10395,
"DM680H": 10396,
"DM688": 10397,
"DM70": 10398,
"DM700": 10399,
"DM700A": 10400,
"DM700B": 10401,
"DM701": 10402,
"DM702": 10403,
"DM703": 10404,
"DM704": 10405,
"DM705": 10406,
"DM705A": 10407,
"DM706": 10408,
"DM706A": 10409,
"DM707": 10410,
"DM707A": 10411,
"DM708": 10412,
"DM709": 10413,
"DM71": 10414,
"DM710": 10415,
"DM711": 10416,
"DM712": 10417,
"DM713": 10418,
"DM713A": 10419,
"DM713B": 10420,
"DM713B1": 10421,
"DM713B2": 10422,
"DM713C": 10423,
"DM713C1": 10424,
"DM713C2": 10425,
"DM713D": 10426,
"DM713D1": 10427,
"DM713D2": 10428,
"DM714": 10429,
"DM715": 10430,
"DM718": 10431,
"DM719": 10432,
"DM719A": 10433,
"DM72": 10434,
"DM720": 10435,
"DM720A": 10436,
"DM721": 10437,
"DM722": 10438,
"DM724": 10439,
"DM724A": 10440,
"DM726": 10441,
"DM728": 10442,
"DM728A": 10443,
"DM728B": 10444,
"DM728C": 10445,
"DM728D": 10446,
"DM729": 10447,
"DM729A": 10448,
"DM729B": 10449,
"DM73": 10450,
"DM730": 10451,
"DM731": 10452,
"DM738": 10453,
"DM75": 10454,
"DM750": 10455,
"DM751": 10456,
"DM751A": 10457,
"DM751B": 10458,
"DM751C": 10459,
"DM752": 10460,
"DM753": 10461,
"DM753A": 10462,
"DM754": 10463,
"DM755": 10464,
"DM755A": 10465,
"DM758": 10466,
"DM759": 10467,
"DM76": 10468,
"DM760": 10469,
"DM761": 10470,
"DM762": 10471,
"DM763": 10472,
"DM763A": 10473,
"DM763B": 10474,
"DM764": 10475,
"DM765": 10476,
"DM766": 10477,
"DM766A": 10478,
"DM767": 10479,
"DM768": 10480,
"DM768A": 10481,
"DM768B": 10482,
"DM769": 10483,
"DM77": 10484,
"DM770": 10485,
"DM771": 10486,
"DM772": 10487,
"DM773": 10488,
"DM774": 10489,
"DM775": 10490,
"DM778": 10491,
"DM779": 10492,
"DM779A": 10493,
"DM79": 10494,
"DM790": 10495,
"DM791": 10496,
"DM792": 10497,
"DM792A": 10498,
"DM792B": 10499,
"DM793": 10500,
"DM793A": 10501,
"DM793B": 10502,
"DM793C": 10503,
"DM793D": 10504,
"DM793E": 10505,
"DM794": 10506,
"DM795": 10507,
"DM796": 10508,
"DM797": 10509,
"DM797A": 10510,
"DM798": 10511,
"DM798A": 10512,
"DM798B": 10513,
"DM798C": 10514,
"DM798D": 10515,
"DM799": 10516,
"DM80": 10517,
"DM800": 10518,
"DM801": 10519,
"DM802": 10520,
"DM803": 10521,
"DM804": 10522,
"DM805": 10523,
"DM808": 10524,
"DM809": 10525,
"DM809A": 10526,
"DM809B": 10527,
"DM809C": 10528,
"DM81": 10529,
"DM810": 10530,
"DM811": 10531,
"DM812": 10532,
"DM813": 10533,
"DM814": 10534,
"DM815": 10535,
"DM816": 10536,
"DM818": 10537,
"DM818A": 10538,
"DM819": 10539,
"DM82": 10540,
"DM820": 10541,
"DM821": 10542,
"DM828": 10543,
"DM83": 10544,
"DM830": 10545,
"DM831": 10546,
"DM832": 10547,
"DM832A": 10548,
"DM833": 10549,
"DM834": 10550,
"DM835": 10551,
"DM838": 10552,
"DM839": 10553,
"DM84": 10554,
"DM840": 10555,
"DM841": 10556,
"DM842": 10557,
"DM843": 10558,
"DM844": 10559,
"DM844A": 10560,
"DM845": 10561,
"DM848": 10562,
"DM849": 10563,
"DM85": 10564,
"DM850": 10565,
"DM851": 10566,
"DM852": 10567,
"DM852A": 10568,
"DM853": 10569,
"DM854": 10570,
"DM855": 10571,
"DM856": 10572,
"DM858": 10573,
"DM858A": 10574,
"DM859": 10575,
"DM86": 10576,
"DM860": 10577,
"DM861": 10578,
"DM862": 10579,
"DM863": 10580,
"DM864": 10581,
"DM865": 10582,
"DM865A": 10583,
"DM866": 10584,
"DM868": 10585,
"DM868A": 10586,
"DM869": 10587,
"DM869A": 10588,
"DM869B": 10589,
"DM869C": 10590,
"DM87": 10591,
"DM870": 10592,
"DM871": 10593,
"DM872": 10594,
"DM873": 10595,
"DM878": 10596,
"DM879": 10597,
"DM88": 10598,
"DM880": 10599,
"DM888": 10600,
"DM889": 10601,
"DM89": 10602,
"DM890": 10603,
"DM891": 10604,
"DM892": 10605,
"DM893": 10606,
"DM894": 10607,
"DM894A": 10608,
"DM894B": 10609,
"DM894C": 10610,
"DM895": 10611,
"DM896": 10612,
"DM898": 10613,
"DM898A": 10614,
"DM898B": 10615,
"DM899": 10616,
"DM90": 10617,
"DM900": 10618,
"DM901": 10619,
"DM902": 10620,
"DM903": 10621,
"DM904": 10622,
"DM905": 10623,
"DM906": 10624,
"DM907": 10625,
"DM908": 10626,
"DM91": 10627,
"DM910": 10628,
"DM910A": 10629,
"DM910B": 10630,
"DM910C": 10631,
"DM910D": 10632,
"DM911": 10633,
"DM912": 10634,
"DM913": 10635,
"DM918": 10636,
"DM918A": 10637,
"DM919": 10638,
"DM92": 10639,
"DM920": 10640,
"DM920A": 10641,
"DM920B": 10642,
"DM921": 10643,
"DM921A": 10644,
"DM921B": 10645,
"DM921C": 10646,
"DM921D": 10647,
"DM922": 10648,
"DM922A": 10649,
"DM922B": 10650,
"DM922C": 10651,
"DM923": 10652,
"DM924": 10653,
"DM925": 10654,
"DM925A": 10655,
"DM925B": 10656,
"DM926": 10657,
"DM926B": 10658,
"DM926C": 10659,
"DM926D": 10660,
"DM927": 10661,
"DM927A": 10662,
"DM928": 10663,
"DM928A": 10664,
"DM929": 10665,
"DM93": 10666,
"DM930": 10667,
"DM931": 10668,
"DM932": 10669,
"DM932A": 10670,
"DM932B": 10671,
"DM938": 10672,
"DM939": 10673,
"DM94": 10674,
"DM940": 10675,
"DM941": 10676,
"DM942": 10677,
"DM943": 10678,
"DM948": 10679,
"DM948A": 10680,
"DM948B": 10681,
"DM948D": 10682,
"DM948E": 10683,
"DM948F": 10684,
"DM948G": 10685,
"DM949": 10686,
"DM95": 10687,
"DM950": 10688,
"DM951": 10689,
"DM952": 10690,
"DM952A": 10691,
"DM952B": 10692,
"DM953": 10693,
"DM954": 10694,
"DM954A": 10695,
"DM954B": 10696,
"DM955": 10697,
"DM958": 10698,
"DM959": 10699,
"DM96": 10700,
"DM960": 10701,
"DM960A": 10702,
"DM960B": 10703,
"DM961": 10704,
"DM962": 10705,
"DM963": 10706,
"DM964": 10707,
"DM965": 10708,
"DM966": 10709,
"DM968": 10710,
"DM968A": 10711,
"DM969": 10712,
"DM99": 10713,
"DM990": 10714,
"DM990A": 10715,
"DM990B": 10716,
"DM991": 10717,
"DM992": 10718,
"DM993": 10719,
"DM994": 10720,
"DM995": 10721,
"DM996": 10722,
"DM997": 10723,
"DM998": 10724,
"DM999": 10725,
"DN00": 10726,
"DN000": 10727,
"DN001": 10728,
"DN002": 10729,
"DN003": 10730,
"DN004": 10731,
"DN005": 10732,
"DN006": 10733,
"DN007": 10734,
"DN008": 10735,
"DN008A": 10736,
"DN009": 10737,
"DN01": 10738,
"DN010": 10739,
"DN011": 10740,
"DN012": 10741,
"DN013": 10742,
"DN014": 10743,
"DN015": 10744,
"DN016": 10745,
"DN017": 10746,
"DN018": 10747,
"DN018A": 10748,
"DN019": 10749,
"DN02": 10750,
"DN020": 10751,
"DN021": 10752,
"DN022": 10753,
"DN023": 10754,
"DN024": 10755,
"DN025": 10756,
"DN026": 10757,
"DN027": 10758,
"DN028": 10759,
"DN028C": 10760,
"DN029": 10761,
"DN029A": 10762,
"DN029B": 10763,
"DN03": 10764,
"DN030": 10765,
"DN031": 10766,
"DN032": 10767,
"DN033": 10768,
"DN034": 10769,
"DN035": 10770,
"DN036": 10771,
"DN037": 10772,
"DN038": 10773,
"DN038A": 10774,
"DN039": 10775,
"DN04": 10776,
"DN040": 10777,
"DN041": 10778,
"DN042": 10779,
"DN043": 10780,
"DN044": 10781,
"DN045": 10782,
"DN046": 10783,
"DN047": 10784,
"DN048": 10785,
"DN048A": 10786,
"DN049": 10787,
"DN05": 10788,
"DN050": 10789,
"DN051": 10790,
"DN052": 10791,
"DN053": 10792,
"DN054": 10793,
"DN055": 10794,
"DN056": 10795,
"DN057": 10796,
"DN058": 10797,
"DN058A": 10798,
"DN059": 10799,
"DN06": 10800,
"DN060": 10801,
"DN061": 10802,
"DN062": 10803,
"DN063": 10804,
"DN064": 10805,
"DN065": 10806,
"DN066": 10807,
"DN067": 10808,
"DN068": 10809,
"DN068A": 10810,
"DN069": 10811,
"DN07": 10812,
"DN070": 10813,
"DN071": 10814,
"DN072": 10815,
"DN073": 10816,
"DN074": 10817,
"DN075": 10818,
"DN076": 10819,
"DN077": 10820,
"DN078": 10821,
"DN078A": 10822,
"DN079": 10823,
"DN08": 10824,
"DN080": 10825,
"DN081": 10826,
"DN082": 10827,
"DN083": 10828,
"DN084": 10829,
"DN085": 10830,
"DN088": 10831,
"DN10": 10832,
"DN109": 10833,
"DN109A": 10834,
"DN109B": 10835,
"DN109C": 10836,
"DN11": 10837,
"DN110": 10838,
"DN110A": 10839,
"DN111": 10840,
"DN111A": 10841,
"DN111B": 10842,
"DN118": 10843,
"DN118A": 10844,
"DN118B": 10845,
"DN118C": 10846,
"DN118D": 10847,
"DN119": 10848,
"DN12": 10849,
"DN129": 10850,
"DN13": 10851,
"DN130": 10852,
"DN131": 10853,
"DN131A": 10854,
"DN132": 10855,
"DN132A": 10856,
"DN132B": 10857,
"DN133": 10858,
"DN133A": 10859,
"DN134": 10860,
"DN135": 10861,
"DN135A": 10862,
"DN135B": 10863,
"DN136": 10864,
"DN136A": 10865,
"DN136B": 10866,
"DN136C": 10867,
"DN136D": 10868,
"DN136E": 10869,
"DN137": 10870,
"DN138": 10871,
"DN138A": 10872,
"DN139": 10873,
"DN139A": 10874,
"DN139B": 10875,
"DN139C": 10876,
"DN14": 10877,
"DN140": 10878,
"DN140A": 10879,
"DN141": 10880,
"DN142": 10881,
"DN143": 10882,
"DN144": 10883,
"DN15": 10884,
"DN150": 10885,
"DN151": 10886,
"DN151A": 10887,
"DN151B": 10888,
"DN158": 10889,
"DN159": 10890,
"DN16": 10891,
"DN160": 10892,
"DN161": 10893,
"DN162": 10894,
"DN163": 10895,
"DN164": 10896,
"DN165": 10897,
"DN168": 10898,
"DN17": 10899,
"DN170": 10900,
"DN171": 10901,
"DN172": 10902,
"DN178": 10903,
"DN179": 10904,
"DN18": 10905,
"DN181": 10906,
"DN182": 10907,
"DN183": 10908,
"DN184": 10909,
"DN185": 10910,
"DN189": 10911,
"DN19": 10912,
"DN199": 10913,
"DN20": 10914,
"DN200": 10915,
"DN200A": 10916,
"DN200F": 10917,
"DN200I": 10918,
"DN200M": 10919,
"DN200S": 10920,
"DN200X": 10921,
"DN200X1": 10922,
"DN200X2": 10923,
"DN200Y": 10924,
"DN200Z": 10925,
"DN201": 10926,
"DN201A": 10927,
"DN201F": 10928,
"DN201I": 10929,
"DN201M": 10930,
"DN201S": 10931,
"DN201X": 10932,
"DN201X1": 10933,
"DN201X2": 10934,
"DN201Y": 10935,
"DN201Z": 10936,
"DN202": 10937,
"DN202A": 10938,
"DN202F": 10939,
"DN202I": 10940,
"DN202M": 10941,
"DN202S": 10942,
"DN202X": 10943,
"DN202X1": 10944,
"DN202X2": 10945,
"DN202Y": 10946,
"DN202Z": 10947,
"DN209": 10948,
"DN209A": 10949,
"DN21": 10950,
"DN210": 10951,
"DN210A": 10952,
"DN211": 10953,
"DN218": 10954,
"DN219": 10955,
"DN22": 10956,
"DN220": 10957,
"DN228": 10958,
"DN23": 10959,
"DN239": 10960,
"DN25": 10961,
"DN250": 10962,
"DN250B": 10963,
"DN251": 10964,
"DN258": 10965,
"DN258A": 10966,
"DN258B": 10967,
"DN258C": 10968,
"DN259": 10969,
"DN26": 10970,
"DN269": 10971,
"DN27": 10972,
"DN270": 10973,
"DN271": 10974,
"DN279": 10975,
"DN28": 10976,
"DN280": 10977,
"DN280A": 10978,
"DN280B": 10979,
"DN280C": 10980,
"DN280D": 10981,
"DN281": 10982,
"DN288": 10983,
"DN288A": 10984,
"DN288B": 10985,
"DN288C": 10986,
"DN288D": 10987,
"DN288E": 10988,
"DN288F": 10989,
"DN288G": 10990,
"DN288H": 10991,
"DN288J": 10992,
"DN289": 10993,
"DN289A": 10994,
"DN29": 10995,
"DN290": 10996,
"DN291": 10997,
"DN298": 10998,
"DN30": 10999,
"DN300": 11000,
"DN301": 11001,
"DN302": 11002,
"DN303": 11003,
"DN303A": 11004,
"DN304": 11005,
"DN308": 11006,
"DN308A": 11007,
"DN308B": 11008,
"DN308C": 11009,
"DN308D": 11010,
"DN308E": 11011,
"DN308F": 11012,
"DN308G": 11013,
"DN308H": 11014,
"DN308J": 11015,
"DN308K": 11016,
"DN309": 11017,
"DN31": 11018,
"DN310": 11019,
"DN311": 11020,
"DN312": 11021,
"DN318": 11022,
"DN318A": 11023,
"DN319": 11024,
"DN32": 11025,
"DN320": 11026,
"DN320A": 11027,
"DN320B": 11028,
"DN321": 11029,
"DN321A": 11030,
"DN322": 11031,
"DN323": 11032,
"DN324": 11033,
"DN328": 11034,
"DN328A": 11035,
"DN328B": 11036,
"DN328C": 11037,
"DN328D": 11038,
"DN328E": 11039,
"DN328F": 11040,
"DN329": 11041,
"DN33": 11042,
"DN330": 11043,
"DN338": 11044,
"DN34": 11045,
"DN340": 11046,
"DN340B": 11047,
"DN340C": 11048,
"DN341": 11049,
"DN342": 11050,
"DN342A": 11051,
"DN342B": 11052,
"DN342C": 11053,
"DN342D": 11054,
"DN342E": 11055,
"DN342F": 11056,
"DN342G": 11057,
"DN343": 11058,
"DN35": 11059,
"DN350": 11060,
"DN350A": 11061,
"DN351": 11062,
"DN358": 11063,
"DN358A": 11064,
"DN359": 11065,
"DN36": 11066,
"DN360": 11067,
"DN360A": 11068,
"DN360B": 11069,
"DN360C": 11070,
"DN361": 11071,
"DN362": 11072,
"DN363": 11073,
"DN363A": 11074,
"DN368": 11075,
"DN368A": 11076,
"DN368B": 11077,
"DN368D": 11078,
"DN368E": 11079,
"DN369": 11080,
"DN37": 11081,
"DN370": 11082,
"DN378": 11083,
"DN39": 11084,
"DN390": 11085,
"DN390A": 11086,
"DN390B": 11087,
"DN391": 11088,
"DN392": 11089,
"DN393": 11090,
"DN394": 11091,
"DN394A": 11092,
"DN394B": 11093,
"DN394C": 11094,
"DN398": 11095,
"DN398A": 11096,
"DN399": 11097,
"DN399A": 11098,
"DN40": 11099,
"DN409": 11100,
"DN409B": 11101,
"DN409E": 11102,
"DN409G": 11103,
"DN41": 11104,
"DN410": 11105,
"DN411": 11106,
"DN412": 11107,
"DN412A": 11108,
"DN413": 11109,
"DN413A": 11110,
"DN418": 11111,
"DN419": 11112,
"DN42": 11113,
"DN420": 11114,
"DN421": 11115,
"DN422": 11116,
"DN423": 11117,
"DN428": 11118,
"DN428A": 11119,
"DN429": 11120,
"DN43": 11121,
"DN430": 11122,
"DN431": 11123,
"DN432": 11124,
"DN433": 11125,
"DN434": 11126,
"DN44": 11127,
"DN449": 11128,
"DN449A": 11129,
"DN449B": 11130,
"DN449C": 11131,
"DN449D": 11132,
"DN449E": 11133,
"DN45": 11134,
"DN450": 11135,
"DN450A": 11136,
"DN450B": 11137,
"DN450C": 11138,
"DN459": 11139,
"DN459A": 11140,
"DN459B": 11141,
"DN459C": 11142,
"DN459D": 11143,
"DN459E": 11144,
"DN46": 11145,
"DN469": 11146,
"DN469A": 11147,
"DN469B": 11148,
"DN469C": 11149,
"DN469D": 11150,
"DN469E": 11151,
"DN469W": 11152,
"DN47": 11153,
"DN479": 11154,
"DN479A": 11155,
"DN479B": 11156,
"DN479C": 11157,
"DN479D": 11158,
"DN479E": 11159,
"DN48": 11160,
"DN480": 11161,
"DN480A": 11162,
"DN480B": 11163,
"DN481": 11164,
"DN481A": 11165,
"DN481B": 11166,
"DN481C": 11167,
"DN481D": 11168,
"DN482": 11169,
"DN482A": 11170,
"DN482B": 11171,
"DN482C": 11172,
"DN482D": 11173,
"DN482E": 11174,
"DN482F": 11175,
"DN482G": 11176,
"DN482H": 11177,
"DN482I": 11178,
"DN483": 11179,
"DN484": 11180,
"DN485": 11181,
"DN485A": 11182,
"DN485B": 11183,
"DN486": 11184,
"DN486A": 11185,
"DN488": 11186,
"DN488A": 11187,
"DN488B": 11188,
"DN488C": 11189,
"DN488D": 11190,
"DN488E": 11191,
"DN488F": 11192,
"DN488G": 11193,
"DN488H": 11194,
"DN488J": 11195,
"DN488K": 11196,
"DN489": 11197,
"DN49": 11198,
"DN490": 11199,
"DN491": 11200,
"DN491A": 11201,
"DN491B": 11202,
"DN491C": 11203,
"DN491D": 11204,
"DN492": 11205,
"DN492A": 11206,
"DN492B": 11207,
"DN492C": 11208,
"DN492D": 11209,
"DN498": 11210,
"DN498A": 11211,
"DN498B": 11212,
"DN498C": 11213,
"DN498M": 11214,
"DN499": 11215,
"DN50": 11216,
"DN500": 11217,
"DN501": 11218,
"DN501A": 11219,
"DN501B": 11220,
"DN501C": 11221,
"DN501D": 11222,
"DN501E": 11223,
"DN501F": 11224,
"DN502": 11225,
"DN502A": 11226,
"DN502B": 11227,
"DN502C": 11228,
"DN508": 11229,
"DN508A": 11230,
"DN508B": 11231,
"DN508C": 11232,
"DN508D": 11233,
"DN508E": 11234,
"DN508F": 11235,
"DN508G": 11236,
"DN508H": 11237,
"DN508I": 11238,
"DN508J": 11239,
"DN508K": 11240,
"DN508L": 11241,
"DN508M": 11242,
"DN508N": 11243,
"DN508O": 11244,
"DN508P": 11245,
"DN508Q": 11246,
"DN508R": 11247,
"DN508S": 11248,
"DN508T": 11249,
"DN508U": 11250,
"DN508V": 11251,
"DN508X": 11252,
"DN508Y": 11253,
"DN509": 11254,
"DN51": 11255,
"DN510": 11256,
"DN511": 11257,
"DN511K": 11258,
"DN511L": 11259,
"DN512": 11260,
"DN518": 11261,
"DN60": 11262,
"DN600": 11263,
"DN600A": 11264,
"DN601": 11265,
"DN602": 11266,
"DN603": 11267,
"DN603A": 11268,
"DN603B": 11269,
"DN604": 11270,
"DN608": 11271,
"DN608A": 11272,
"DN609": 11273,
"DN61": 11274,
"DN619": 11275,
"DN619A": 11276,
"DN619B": 11277,
"DN619E": 11278,
"DN62": 11279,
"DN629": 11280,
"DN629A": 11281,
"DN629B": 11282,
"DN629D": 11283,
"DN629E": 11284,
"DN63": 11285,
"DN639": 11286,
"DN64": 11287,
"DN640": 11288,
"DN640A": 11289,
"DN640B": 11290,
"DN641": 11291,
"DN642": 11292,
"DN643": 11293,
"DN644": 11294,
"DN644A": 11295,
"DN644B": 11296,
"DN645": 11297,
"DN645A": 11298,
"DN645B": 11299,
"DN645C": 11300,
"DN645D": 11301,
"DN648": 11302,
"DN648A": 11303,
"DN648D": 11304,
"DN648E": 11305,
"DN648F": 11306,
"DN648G": 11307,
"DN648H": 11308,
"DN649": 11309,
"DN70": 11310,
"DN700": 11311,
"DN700A": 11312,
"DN700B": 11313,
"DN700C": 11314,
"DN700D": 11315,
"DN700E": 11316,
"DN700F": 11317,
"DN700G": 11318,
"DN701": 11319,
"DN701A": 11320,
"DN701B": 11321,
"DN701C": 11322,
"DN701D": 11323,
"DN701E": 11324,
"DN701F": 11325,
"DN701G": 11326,
"DN701H": 11327,
"DN709": 11328,
"DN709A": 11329,
"DN709B": 11330,
"DN709C": 11331,
"DN71": 11332,
"DN710": 11333,
"DN710A": 11334,
"DN710C": 11335,
"DN710D": 11336,
"DN710E": 11337,
"DN710F": 11338,
"DN711": 11339,
"DN711A": 11340,
"DN711B": 11341,
"DN711D": 11342,
"DN711E": 11343,
"DN711F": 11344,
"DN719": 11345,
"DN72": 11346,
"DN729": 11347,
"DN729A": 11348,
"DN729B": 11349,
"DN729C": 11350,
"DN729D": 11351,
"DN729E": 11352,
"DN729F": 11353,
"DN73": 11354,
"DN730": 11355,
"DN730A": 11356,
"DN730B": 11357,
"DN730C": 11358,
"DN730D": 11359,
"DN730E": 11360,
"DN731": 11361,
"DN731A": 11362,
"DN731B": 11363,
"DN731C": 11364,
"DN731D": 11365,
"DN731E": 11366,
"DN732": 11367,
"DN732A": 11368,
"DN732B": 11369,
"DN732C": 11370,
"DN732D": 11371,
"DN732E": 11372,
"DN733": 11373,
"DN733A": 11374,
"DN734": 11375,
"DN734A": 11376,
"DN735": 11377,
"DN735A": 11378,
"DN736": 11379,
"DN736A": 11380,
"DN736B": 11381,
"DN738": 11382,
"DN738A": 11383,
"DN738B": 11384,
"DN738C": 11385,
"DN739": 11386,
"DN74": 11387,
"DN740": 11388,
"DN741": 11389,
"DN741A": 11390,
"DN742": 11391,
"DN743": 11392,
"DN744": 11393,
"DN748": 11394,
"DN75": 11395,
"DN750": 11396,
"DN751": 11397,
"DN758": 11398,
"DN758A": 11399,
"DN758B": 11400,
"DN758C": 11401,
"DN759": 11402,
"DN76": 11403,
"DN760": 11404,
"DN760B": 11405,
"DN760C": 11406,
"DN760D": 11407,
"DN760E": 11408,
"DN761": 11409,
"DN761A": 11410,
"DN761B": 11411,
"DN761C": 11412,
"DN761D": 11413,
"DN761E": 11414,
"DN762": 11415,
"DN762A": 11416,
"DN763": 11417,
"DN763A": 11418,
"DN763B": 11419,
"DN764": 11420,
"DN764A": 11421,
"DN764B": 11422,
"DN764C": 11423,
"DN764D": 11424,
"DN764E": 11425,
"DN765": 11426,
"DN766": 11427,
"DN766A": 11428,
"DN768": 11429,
"DN768A": 11430,
"DN768B": 11431,
"DN768C": 11432,
"DN77": 11433,
"DN770": 11434,
"DN771": 11435,
"DN771P": 11436,
"DN771Q": 11437,
"DN771R": 11438,
"DN778": 11439,
"DN80": 11440,
"DN800": 11441,
"DN801": 11442,
"DN802": 11443,
"DN803": 11444,
"DN804": 11445,
"DN804A": 11446,
"DN804B": 11447,
"DN805": 11448,
"DN805A": 11449,
"DN805B": 11450,
"DN805C": 11451,
"DN806": 11452,
"DN808": 11453,
"DN808A": 11454,
"DN808B": 11455,
"DN808C": 11456,
"DN808D": 11457,
"DN809": 11458,
"DN81": 11459,
"DN810": 11460,
"DN811": 11461,
"DN812": 11462,
"DN813": 11463,
"DN813A": 11464,
"DN814": 11465,
"DN815": 11466,
"DN815A": 11467,
"DN816": 11468,
"DN816A": 11469,
"DN817": 11470,
"DN818": 11471,
"DN818A": 11472,
"DN818B": 11473,
"DN818C": 11474,
"DN818D": 11475,
"DN819": 11476,
"DN82": 11477,
"DN820": 11478,
"DN821": 11479,
"DN821A": 11480,
"DN821B": 11481,
"DN821C": 11482,
"DN821D": 11483,
"DN821E": 11484,
"DN822": 11485,
"DN823": 11486,
"DN823A": 11487,
"DN824": 11488,
"DN824A": 11489,
"DN824B": 11490,
"DN825": 11491,
"DN825A": 11492,
"DN825B": 11493,
"DN825C": 11494,
"DN825D": 11495,
"DN825E": 11496,
"DN825F": 11497,
"DN828": 11498,
"DN828A": 11499,
"DN828B": 11500,
"DN828C": 11501,
"DN828D": 11502,
"DN828E": 11503,
"DN828F": 11504,
"DN829": 11505,
"DN83": 11506,
"DN830": 11507,
"DN830A": 11508,
"DN831": 11509,
"DN831A": 11510,
"DN831B": 11511,
"DN832": 11512,
"DN832A": 11513,
"DN832B": 11514,
"DN832C": 11515,
"DN832D": 11516,
"DN832X": 11517,
"DN833": 11518,
"DN833A": 11519,
"DN833B": 11520,
"DN834": 11521,
"DN834A": 11522,
"DN834B": 11523,
"DN834C": 11524,
"DN835": 11525,
"DN835A": 11526,
"DN835B": 11527,
"DN835C": 11528,
"DN835D": 11529,
"DN835E": 11530,
"DN836": 11531,
"DN837": 11532,
"DN838": 11533,
"DN838A": 11534,
"DN838B": 11535,
"DN838C": 11536,
"DN838D": 11537,
"DN838E": 11538,
"DN838F": 11539,
"DN838G": 11540,
"DN838H": 11541,
"DN838I": 11542,
"DN838J": 11543,
"DN838K": 11544,
"DN839": 11545,
"DN84": 11546,
"DN840": 11547,
"DN840A": 11548,
"DN840B": 11549,
"DN841": 11550,
"DN841A": 11551,
"DN842": 11552,
"DN843": 11553,
"DN843A": 11554,
"DN843B": 11555,
"DN848": 11556,
"DN849": 11557,
"DN85": 11558,
"DN850": 11559,
"DN850A": 11560,
"DN850B": 11561,
"DN851": 11562,
"DN852": 11563,
"DN852A": 11564,
"DN853": 11565,
"DN854": 11566,
"DN854A": 11567,
"DN854B": 11568,
"DN854C": 11569,
"DN855": 11570,
"DN856": 11571,
"DN857": 11572,
"DN857A": 11573,
"DN858": 11574,
"DN858A": 11575,
"DN858B": 11576,
"DN858C": 11577,
"DN858E": 11578,
"DN858F": 11579,
"DN858G": 11580,
"DN858H": 11581,
"DN858I": 11582,
"DN858J": 11583,
"DN858K": 11584,
"DN858L": 11585,
"DN858M": 11586,
"DN858N": 11587,
"DN858O": 11588,
"DN859": 11589,
"DN86": 11590,
"DN869": 11591,
"DN869A": 11592,
"DN869B": 11593,
"DN869C": 11594,
"DN869D": 11595,
"DN869E": 11596,
"DN87": 11597,
"DN870": 11598,
"DN871": 11599,
"DN872": 11600,
"DN879": 11601,
"DN88": 11602,
"DN880": 11603,
"DN881": 11604,
"DN881A": 11605,
"DN881B": 11606,
"DN881C": 11607,
"DN882": 11608,
"DN882A": 11609,
"DN882B": 11610,
"DN883": 11611,
"DN884": 11612,
"DN888": 11613,
"DN888A": 11614,
"DN888B": 11615,
"DN888C": 11616,
"DN888D": 11617,
"DN888E": 11618,
"DN888F": 11619,
"DN888G": 11620,
"DN888H": 11621,
"DN889": 11622,
"DN89": 11623,
"DN890": 11624,
"DN891": 11625,
"DN892": 11626,
"DN893": 11627,
"DN894": 11628,
"DN895": 11629,
"DN895A": 11630,
"DN895B": 11631,
"DN895C": 11632,
"DN895D": 11633,
"DN895E": 11634,
"DN896": 11635,
"DN896A": 11636,
"DN896B": 11637,
"DN897": 11638,
"DN897A": 11639,
"DN897B": 11640,
"DN898": 11641,
"DN898A": 11642,
"DN898B": 11643,
"DN898C": 11644,
"DN898D": 11645,
"DN898E": 11646,
"DN898F": 11647,
"DN898G": 11648,
"DN898H": 11649,
"DN898J": 11650,
"DN899": 11651,
"DN90": 11652,
"DN900": 11653,
"DN900A": 11654,
"DN901": 11655,
"DN902": 11656,
"DN902A": 11657,
"DN902B": 11658,
"DN903": 11659,
"DN904": 11660,
"DN904A": 11661,
"DN905": 11662,
"DN905A": 11663,
"DN906": 11664,
"DN907": 11665,
"DN908": 11666,
"DN908A": 11667,
"DN908B": 11668,
"DN908C": 11669,
"DN908D": 11670,
"DN908E": 11671,
"DN908F": 11672,
"DN908G": 11673,
"DN909": 11674,
"DN909A": 11675,
"DN909B": 11676,
"DN91": 11677,
"DN910": 11678,
"DN911": 11679,
"DN912": 11680,
"DN913": 11681,
"DN913A": 11682,
"DN913C": 11683,
"DN914": 11684,
"DN914A": 11685,
"DN914C": 11686,
"DN915": 11687,
"DN915A": 11688,
"DN915C": 11689,
"DN92": 11690,
"DN920": 11691,
"DN920A": 11692,
"DN920B": 11693,
"DN920C": 11694,
"DN921": 11695,
"DN921A": 11696,
"DN921B": 11697,
"DN922": 11698,
"DN922A": 11699,
"DN923": 11700,
"DN924": 11701,
"DN924A": 11702,
"DN924B": 11703,
"DN925": 11704,
"DN925A": 11705,
"DN925B": 11706,
"DN926": 11707,
"DN93": 11708,
"DN930": 11709,
"DN930A": 11710,
"DN930B": 11711,
"DN938": 11712,
"DN938A": 11713,
"DN938B": 11714,
"DN938C": 11715,
"DN939": 11716,
"DN939A": 11717,
"DN939B": 11718,
"DN94": 11719,
"DN940": 11720,
"DN941": 11721,
"DN942": 11722,
"DN943": 11723,
"DN944": 11724,
"DN945": 11725,
"DN946": 11726,
"DN948": 11727,
"DN948A": 11728,
"DN949": 11729,
"DN95": 11730,
"DN950": 11731,
"DN951": 11732,
"DN951A": 11733,
"DN951B": 11734,
"DN951C": 11735,
"DN951D": 11736,
"DN951E": 11737,
"DN952": 11738,
"DN952A": 11739,
"DN953": 11740,
"DN958": 11741,
"DN959": 11742,
"DN96": 11743,
"DN969": 11744,
"DN97": 11745,
"DN970": 11746,
"DN971": 11747,
"DN972": 11748,
"DN973": 11749,
"DN974": 11750,
"DN978": 11751,
"DN978A": 11752,
"DN978B": 11753,
"DN978B1": 11754,
"DN978C": 11755,
"DN978D": 11756,
"DN978E": 11757,
"DN978F": 11758,
"DN979": 11759,
"DN98": 11760,
"DN980": 11761,
"DN981": 11762,
"DN981A": 11763,
"DN981B": 11764,
"DN981C": 11765,
"DN981D": 11766,
"DN982": 11767,
"DN983": 11768,
"DN984": 11769,
"DN985": 11770,
"DN986": 11771,
"DN988": 11772,
"DN989": 11773,
"DN99": 11774,
"DN990": 11775,
"DN991": 11776,
"DN991A": 11777,
"DN991B": 11778,
"DN992": 11779,
"DN993": 11780,
"DN994": 11781,
"DN995": 11782,
"DN998": 11783,
"DN998A": 11784,
"DN998A1": 11785,
"DN998A2": 11786,
"DN999": 11787,
"DO00": 11788,
"DO000": 11789,
"DO001": 11790,
"DO002": 11791,
"DO003": 11792,
"DO003A": 11793,
"DO003B": 11794,
"DO008": 11795,
"DO008A": 11796,
"DO008B": 11797,
"DO008C": 11798,
"DO008D": 11799,
"DO008E": 11800,
"DO009": 11801,
"DO01": 11802,
"DO010": 11803,
"DO011": 11804,
"DO019": 11805,
"DO019A": 11806,
"DO02": 11807,
"DO020": 11808,
"DO021": 11809,
"DO022": 11810,
"DO028": 11811,
"DO029": 11812,
"DO03": 11813,
"DO030": 11814,
"DO031": 11815,
"DO032": 11816,
"DO033": 11817,
"DO034": 11818,
"DO035": 11819,
"DO036": 11820,
"DO037": 11821,
"DO038": 11822,
"DO039": 11823,
"DO04": 11824,
"DO049": 11825,
"DO05": 11826,
"DO050": 11827,
"DO059": 11828,
"DO06": 11829,
"DO069": 11830,
"DO07": 11831,
"DO079": 11832,
"DO08": 11833,
"DO080": 11834,
"DO080B": 11835,
"DO080O": 11836,
"DO080U": 11837,
"DO081": 11838,
"DO081G": 11839,
"DO082": 11840,
"DO083": 11841,
"DO084": 11842,
"DO085": 11843,
"DO086": 11844,
"DO086R": 11845,
"DO087": 11846,
"DO088": 11847,
"DO088L": 11848,
"DO089": 11849,
"DO10": 11850,
"DO100": 11851,
"DO101": 11852,
"DO102": 11853,
"DO103": 11854,
"DO104": 11855,
"DO109": 11856,
"DO11": 11857,
"DO119": 11858,
"DO119A": 11859,
"DO119B": 11860,
"DO119C": 11861,
"DO12": 11862,
"DO120": 11863,
"DO121": 11864,
"DO122": 11865,
"DO13": 11866,
"DO139": 11867,
"DO14": 11868,
"DO140": 11869,
"DO141": 11870,
"DO142": 11871,
"DO149": 11872,
"DO15": 11873,
"DO150": 11874,
"DO151": 11875,
"DO152": 11876,
"DO159": 11877,
"DO16": 11878,
"DO169": 11879,
"DO20": 11880,
"DO200": 11881,
"DO208": 11882,
"DO208A": 11883,
"DO208B": 11884,
"DO208C": 11885,
"DO209": 11886,
"DO21": 11887,
"DO210": 11888,
"DO211": 11889,
"DO212": 11890,
"DO218": 11891,
"DO219": 11892,
"DO22": 11893,
"DO220": 11894,
"DO221": 11895,
"DO221A": 11896,
"DO221B": 11897,
"DO221C": 11898,
"DO222": 11899,
"DO223": 11900,
"DO224": 11901,
"DO225": 11902,
"DO225A": 11903,
"DO228": 11904,
"DO229": 11905,
"DO23": 11906,
"DO230": 11907,
"DO231": 11908,
"DO232": 11909,
"DO233": 11910,
"DO234": 11911,
"DO235": 11912,
"DO235A": 11913,
"DO239": 11914,
"DO24": 11915,
"DO240": 11916,
"DO240A": 11917,
"DO240B": 11918,
"DO240C": 11919,
"DO241": 11920,
"DO241A": 11921,
"DO241B": 11922,
"DO241C": 11923,
"DO242": 11924,
"DO242A": 11925,
"DO242B": 11926,
"DO242C": 11927,
"DO243": 11928,
"DO243A": 11929,
"DO243B": 11930,
"DO243C": 11931,
"DO244": 11932,
"DO244B": 11933,
"DO244C": 11934,
"DO244D": 11935,
"DO244E": 11936,
"DO245": 11937,
"DO249": 11938,
"DO249A": 11939,
"DO249B": 11940,
"DO249C": 11941,
"DO25": 11942,
"DO259": 11943,
"DO26": 11944,
"DO260": 11945,
"DO261": 11946,
"DO262": 11947,
"DO263": 11948,
"DO264": 11949,
"DO265": 11950,
"DO266": 11951,
"DO266A": 11952,
"DO266B": 11953,
"DO266C": 11954,
"DO266D": 11955,
"DO266E": 11956,
"DO266F": 11957,
"DO266G": 11958,
"DO267": 11959,
"DO267A": 11960,
"DO267B": 11961,
"DO268": 11962,
"DO268A": 11963,
"DO268B": 11964,
"DO268C": 11965,
"DO268D": 11966,
"DO268E": 11967,
"DO268F": 11968,
"DO268G": 11969,
"DO268H": 11970,
"DO268J": 11971,
"DO269": 11972,
"DO28": 11973,
"DO280": 11974,
"DO281": 11975,
"DO282": 11976,
"DO283": 11977,
"DO283A": 11978,
"DO283A1": 11979,
"DO284": 11980,
"DO285": 11981,
"DO285A": 11982,
"DO285B": 11983,
"DO288": 11984,
"DO289": 11985,
"DO29": 11986,
"DO290": 11987,
"DO290A": 11988,
"DO290B": 11989,
"DO290C": 11990,
"DO291": 11991,
"DO291A": 11992,
"DO291B": 11993,
"DO292": 11994,
"DO292A": 11995,
"DO293": 11996,
"DO294": 11997,
"DO295": 11998,
"DO296": 11999,
"DO298": 12000,
"DO299": 12001,
"DO30": 12002,
"DO300": 12003,
"DO300C": 12004,
"DO300D": 12005,
"DO300E": 12006,
"DO301": 12007,
"DO302": 12008,
"DO308": 12009,
"DO308A": 12010,
"DO308A1": 12011,
"DO308A2": 12012,
"DO309": 12013,
"DO31": 12014,
"DO310": 12015,
"DO311": 12016,
"DO312": 12017,
"DO312C": 12018,
"DO312D": 12019,
"DO318": 12020,
"DO32": 12021,
"DO320": 12022,
"DO321": 12023,
"DO322": 12024,
"DO322A": 12025,
"DO322B": 12026,
"DO323": 12027,
"DO323A": 12028,
"DO323B": 12029,
"DO324": 12030,
"DO325": 12031,
"DO326": 12032,
"DO328": 12033,
"DO329": 12034,
"DO33": 12035,
"DO330": 12036,
"DO331": 12037,
"DO332": 12038,
"DO333": 12039,
"DO334": 12040,
"DO335": 12041,
"DO336": 12042,
"DO337": 12043,
"DO337A": 12044,
"DO337B": 12045,
"DO337C": 12046,
"DO337D": 12047,
"DO337E": 12048,
"DO337F": 12049,
"DO338": 12050,
"DO339": 12051,
"DO339A": 12052,
"DO339B": 12053,
"DO34": 12054,
"DO340": 12055,
"DO340A": 12056,
"DO341": 12057,
"DO342": 12058,
"DO343": 12059,
"DO343A": 12060,
"DO343B": 12061,
"DO344": 12062,
"DO344A": 12063,
"DO344B": 12064,
"DO344C": 12065,
"DO344D": 12066,
"DO344E": 12067,
"DO344F": 12068,
"DO345": 12069,
"DO345A": 12070,
"DO345B": 12071,
"DO345C": 12072,
"DO345D": 12073,
"DO346": 12074,
"DO346A": 12075,
"DO346B": 12076,
"DO346C": 12077,
"DO346D": 12078,
"DO346E": 12079,
"DO347": 12080,
"DO347A": 12081,
"DO347B": 12082,
"DO347C": 12083,
"DO347D": 12084,
"DO347E": 12085,
"DO347F": 12086,
"DO348": 12087,
"DO348A": 12088,
"DO348B": 12089,
"DO348C": 12090,
"DO348D": 12091,
"DO348G": 12092,
"DO349": 12093,
"DO35": 12094,
"DO350": 12095,
"DO350A": 12096,
"DO350B": 12097,
"DO351": 12098,
"DO352": 12099,
"DO353": 12100,
"DO353A": 12101,
"DO353B": 12102,
"DO354": 12103,
"DO355": 12104,
"DO355A": 12105,
"DO356": 12106,
"DO357": 12107,
"DO357A": 12108,
"DO357B": 12109,
"DO357C": 12110,
"DO357D": 12111,
"DO357E": 12112,
"DO357F": 12113,
"DO357G": 12114,
"DO358": 12115,
"DO358A": 12116,
"DO358B": 12117,
"DO359": 12118,
"DO359A": 12119,
"DO359B": 12120,
"DO36": 12121,
"DO360": 12122,
"DO361": 12123,
"DO361A": 12124,
"DO361B": 12125,
"DO362": 12126,
"DO362A": 12127,
"DO362B": 12128,
"DO362C": 12129,
"DO362D": 12130,
"DO363": 12131,
"DO364": 12132,
"DO365": 12133,
"DO365A": 12134,
"DO365B": 12135,
"DO365C": 12136,
"DO365D": 12137,
"DO366": 12138,
"DO367": 12139,
"DO368": 12140,
"DO368A": 12141,
"DO368B": 12142,
"DO368D": 12143,
"DO368E": 12144,
"DO368E1": 12145,
"DO368E2": 12146,
"DO368F": 12147,
"DO368G": 12148,
"DO368H": 12149,
"DO368K": 12150,
"DO368L": 12151,
"DO368M": 12152,
"DO368N": 12153,
"DO368P": 12154,
"DO368Q": 12155,
"DO368Q1": 12156,
"DO368Q2": 12157,
"DO368R": 12158,
"DO368S": 12159,
"DO368T": 12160,
"DO369": 12161,
"DO40": 12162,
"DO409": 12163,
"DO41": 12164,
"DO410": 12165,
"DO411": 12166,
"DO411A": 12167,
"DO411B": 12168,
"DO411C": 12169,
"DO411D": 12170,
"DO418": 12171,
"DO418A": 12172,
"DO418B": 12173,
"DO418C": 12174,
"DO419": 12175,
"DO42": 12176,
"DO420": 12177,
"DO422": 12178,
"DO423": 12179,
"DO424": 12180,
"DO429": 12181,
"DO43": 12182,
"DO430": 12183,
"DO430C": 12184,
"DO430D": 12185,
"DO430E": 12186,
"DO431": 12187,
"DO431A": 12188,
"DO431C": 12189,
"DO431E": 12190,
"DO431F": 12191,
"DO438": 12192,
"DO438A": 12193,
"DO438B": 12194,
"DO438C": 12195,
"DO438D": 12196,
"DO438E": 12197,
"DO439": 12198,
"DO44": 12199,
"DO440": 12200,
"DO440A": 12201,
"DO440B": 12202,
"DO441": 12203,
"DO441A": 12204,
"DO441B": 12205,
"DO449": 12206,
"DO45": 12207,
"DO450": 12208,
"DO458": 12209,
"DO459": 12210,
"DO46": 12211,
"DO460": 12212,
"DO468": 12213,
"DO468A": 12214,
"DO469": 12215,
"DO47": 12216,
"DO470": 12217,
"DO471": 12218,
"DO472": 12219,
"DO479": 12220,
"DO48": 12221,
"DO489": 12222,
"DO49": 12223,
"DO499": 12224,
"DO60": 12225,
"DO600": 12226,
"DO601": 12227,
"DO602": 12228,
"DO603": 12229,
"DO609": 12230,
"DO61": 12231,
"DO610": 12232,
"DO610A": 12233,
"DO610B": 12234,
"DO611": 12235,
"DO618": 12236,
"DO619": 12237,
"DO62": 12238,
"DO620": 12239,
"DO620A": 12240,
"DO620B": 12241,
"DO620C": 12242,
"DO620F": 12243,
"DO621": 12244,
"DO621A": 12245,
"DO622": 12246,
"DO622A": 12247,
"DO623": 12248,
"DO624": 12249,
"DO624A": 12250,
"DO624B": 12251,
"DO624C": 12252,
"DO624D": 12253,
"DO628": 12254,
"DO629": 12255,
"DO63": 12256,
"DO630": 12257,
"DO630A": 12258,
"DO631": 12259,
"DO632": 12260,
"DO632A": 12261,
"DO639": 12262,
"DO64": 12263,
"DO640": 12264,
"DO640A": 12265,
"DO640B": 12266,
"DO640C": 12267,
"DO640D": 12268,
"DO640E": 12269,
"DO640F": 12270,
"DO640G": 12271,
"DO640H": 12272,
"DO641": 12273,
"DO641A": 12274,
"DO642": 12275,
"DO643": 12276,
"DO644": 12277,
"DO645": 12278,
"DO648": 12279,
"DO649": 12280,
"DO65": 12281,
"DO650": 12282,
"DO651": 12283,
"DO652": 12284,
"DO653": 12285,
"DO654": 12286,
"DO655": 12287,
"DO656": 12288,
"DO658": 12289,
"DO659": 12290,
"DO66": 12291,
"DO660": 12292,
"DO661": 12293,
"DO662": 12294,
"DO663": 12295,
"DO663A": 12296,
"DO663B": 12297,
"DO663C": 12298,
"DO663D": 12299,
"DO663E": 12300,
"DO663F": 12301,
"DO663G": 12302,
"DO663H": 12303,
"DO663I": 12304,
"DO664": 12305,
"DO665": 12306,
"DO665A": 12307,
"DO665B": 12308,
"DO668": 12309,
"DO668A": 12310,
"DO669": 12311,
"DO67": 12312,
"DO670": 12313,
"DO670B": 12314,
"DO670C": 12315,
"DO670D": 12316,
"DO670E": 12317,
"DO678": 12318,
"DO678A": 12319,
"DO679": 12320,
"DO68": 12321,
"DO680": 12322,
"DO680A": 12323,
"DO680C": 12324,
"DO680D": 12325,
"DO680F": 12326,
"DO681": 12327,
"DO681A": 12328,
"DO682": 12329,
"DO683": 12330,
"DO688": 12331,
"DO688A": 12332,
"DO688B": 12333,
"DO689": 12334,
"DO69": 12335,
"DO690": 12336,
"DO691": 12337,
"DO692": 12338,
"DO692A": 12339,
"DO692B": 12340,
"DO693": 12341,
"DO694": 12342,
"DO694A": 12343,
"DO695": 12344,
"DO695A": 12345,
"DO695B": 12346,
"DO698": 12347,
"DO698A": 12348,
"DO699": 12349,
"DO70": 12350,
"DO700": 12351,
"DO700A": 12352,
"DO700B": 12353,
"DO700C": 12354,
"DO700D": 12355,
"DO701": 12356,
"DO701B": 12357,
"DO702": 12358,
"DO702D": 12359,
"DO702E": 12360,
"DO702G": 12361,
"DO703": 12362,
"DO704": 12363,
"DO709": 12364,
"DO71": 12365,
"DO710": 12366,
"DO710A": 12367,
"DO710B": 12368,
"DO711": 12369,
"DO711A": 12370,
"DO711AA": 12371,
"DO711AB": 12372,
"DO711B": 12373,
"DO712": 12374,
"DO713": 12375,
"DO714": 12376,
"DO715": 12377,
"DO715A": 12378,
"DO715B": 12379,
"DO715C": 12380,
"DO715D": 12381,
"DO716": 12382,
"DO716A": 12383,
"DO716B": 12384,
"DO716C": 12385,
"DO716D": 12386,
"DO717": 12387,
"DO718": 12388,
"DO719": 12389,
"DO72": 12390,
"DO720": 12391,
"DO722": 12392,
"DO73": 12393,
"DO730": 12394,
"DO730A": 12395,
"DO730A1": 12396,
"DO730A2": 12397,
"DO730A3": 12398,
"DO731": 12399,
"DO731A": 12400,
"DO731B": 12401,
"DO74": 12402,
"DO740": 12403,
"DO740A": 12404,
"DO741": 12405,
"DO741A": 12406,
"DO742": 12407,
"DO742A": 12408,
"DO742B": 12409,
"DO743": 12410,
"DO743A": 12411,
"DO744": 12412,
"DO745": 12413,
"DO745A": 12414,
"DO745B": 12415,
"DO746": 12416,
"DO747": 12417,
"DO748": 12418,
"DO748A": 12419,
"DO749": 12420,
"DO75": 12421,
"DO750": 12422,
"DO751": 12423,
"DO752": 12424,
"DO753": 12425,
"DO753A": 12426,
"DO754": 12427,
"DO754A": 12428,
"DO754B": 12429,
"DO754C": 12430,
"DO754D": 12431,
"DO754E": 12432,
"DO754F": 12433,
"DO755": 12434,
"DO756": 12435,
"DO756A": 12436,
"DO756B": 12437,
"DO757": 12438,
"DO758": 12439,
"DO758A": 12440,
"DO759": 12441,
"DO80": 12442,
"DO809": 12443,
"DO81": 12444,
"DO819": 12445,
"DO82": 12446,
"DO829": 12447,
"DO83": 12448,
"DO836": 12449,
"DO837": 12450,
"DO838": 12451,
"DO839": 12452,
"DO84": 12453,
"DO840": 12454,
"DO841": 12455,
"DO842": 12456,
"DO842A": 12457,
"DO846": 12458,
"DO847": 12459,
"DO848": 12460,
"DO849": 12461,
"DO85": 12462,
"DO859": 12463,
"DO859A": 12464,
"DO859B": 12465,
"DO86": 12466,
"DO860": 12467,
"DO860A": 12468,
"DO860B": 12469,
"DO860C": 12470,
"DO860D": 12471,
"DO861": 12472,
"DO861A": 12473,
"DO861B": 12474,
"DO861C": 12475,
"DO862": 12476,
"DO862A": 12477,
"DO862B": 12478,
"DO862C": 12479,
"DO863": 12480,
"DO863A": 12481,
"DO863B": 12482,
"DO864": 12483,
"DO868": 12484,
"DO87": 12485,
"DO870": 12486,
"DO871": 12487,
"DO871A": 12488,
"DO872": 12489,
"DO873": 12490,
"DO873A": 12491,
"DO878": 12492,
"DO879": 12493,
"DO88": 12494,
"DO880": 12495,
"DO881": 12496,
"DO882": 12497,
"DO882A": 12498,
"DO882B": 12499,
"DO882C": 12500,
"DO882D": 12501,
"DO882E": 12502,
"DO883": 12503,
"DO888": 12504,
"DO888A": 12505,
"DO89": 12506,
"DO890": 12507,
"DO890A": 12508,
"DO890B": 12509,
"DO890C": 12510,
"DO891": 12511,
"DO891A": 12512,
"DO891B": 12513,
"DO892": 12514,
"DO892A": 12515,
"DO893": 12516,
"DO894": 12517,
"DO895": 12518,
"DO896": 12519,
"DO898": 12520,
"DO899": 12521,
"DO90": 12522,
"DO900": 12523,
"DO901": 12524,
"DO901A": 12525,
"DO902": 12526,
"DO903": 12527,
"DO904": 12528,
"DO904A": 12529,
"DO905": 12530,
"DO908": 12531,
"DO908A": 12532,
"DO908B": 12533,
"DO908C": 12534,
"DO908D": 12535,
"DO909": 12536,
"DO91": 12537,
"DO910": 12538,
"DO910A": 12539,
"DO910B": 12540,
"DO910C": 12541,
"DO910D": 12542,
"DO910E": 12543,
"DO910F": 12544,
"DO911": 12545,
"DO911A": 12546,
"DO911B": 12547,
"DO911C": 12548,
"DO911D": 12549,
"DO911E": 12550,
"DO911F": 12551,
"DO911G": 12552,
"DO911H": 12553,
"DO911I": 12554,
"DO911J": 12555,
"DO911K": 12556,
"DO911L": 12557,
"DO912": 12558,
"DO912A": 12559,
"DO912B": 12560,
"DO912C": 12561,
"DO912D": 12562,
"DO912E": 12563,
"DO912F": 12564,
"DO912G": 12565,
"DO912H": 12566,
"DO912I": 12567,
"DO92": 12568,
"DO920": 12569,
"DO920A": 12570,
"DO921": 12571,
"DO922": 12572,
"DO923": 12573,
"DO924": 12574,
"DO925": 12575,
"DO926": 12576,
"DO927": 12577,
"DO927A": 12578,
"DO927B": 12579,
"DO927C": 12580,
"DO927D": 12581,
"DO98": 12582,
"DO980": 12583,
"DO981": 12584,
"DO982": 12585,
"DO983": 12586,
"DO984": 12587,
"DO985": 12588,
"DO985A": 12589,
"DO986": 12590,
"DO987": 12591,
"DO988": 12592,
"DO988A": 12593,
"DO988B": 12594,
"DO988C": 12595,
"DO988D": 12596,
"DO988E": 12597,
"DO988F": 12598,
"DO988G": 12599,
"DO988H": 12600,
"DO989": 12601,
"DO99": 12602,
"DO990": 12603,
"DO990A": 12604,
"DO990B": 12605,
"DO990C": 12606,
"DO991": 12607,
"DO991B": 12608,
"DO991C": 12609,
"DO991D": 12610,
"DO992": 12611,
"DO992B": 12612,
"DO992C": 12613,
"DO993": 12614,
"DO993A": 12615,
"DO993A1": 12616,
"DO993A2": 12617,
"DO993A3": 12618,
"DO993B": 12619,
"DO993B1": 12620,
"DO993B2": 12621,
"DO993B3": 12622,
"DO993B4": 12623,
"DO993B5": 12624,
"DO994": 12625,
"DO995": 12626,
"DO995A": 12627,
"DO995B": 12628,
"DO996": 12629,
"DO996A": 12630,
"DO996B": 12631,
"DO996C": 12632,
"DO997": 12633,
"DO997A": 12634,
"DO998": 12635,
"DO998A": 12636,
"DO998B": 12637,
"DP00": 12638,
"DP000": 12639,
"DP001": 12640,
"DP001A": 12641,
"DP002": 12642,
"DP003": 12643,
"DP004": 12644,
"DP005": 12645,
"DP006": 12646,
"DP007": 12647,
"DP008": 12648,
"DP009": 12649,
"DP01": 12650,
"DP010": 12651,
"DP011": 12652,
"DP012": 12653,
"DP013": 12654,
"DP014": 12655,
"DP015": 12656,
"DP015A": 12657,
"DP016": 12658,
"DP017": 12659,
"DP018": 12660,
"DP019": 12661,
"DP02": 12662,
"DP020": 12663,
"DP021": 12664,
"DP021D": 12665,
"DP022": 12666,
"DP022A": 12667,
"DP022B": 12668,
"DP023": 12669,
"DP024": 12670,
"DP025": 12671,
"DP025A": 12672,
"DP025B": 12673,
"DP026": 12674,
"DP027": 12675,
"DP028": 12676,
"DP028A": 12677,
"DP028B": 12678,
"DP029": 12679,
"DP03": 12680,
"DP030": 12681,
"DP031": 12682,
"DP031A": 12683,
"DP031B": 12684,
"DP032": 12685,
"DP033": 12686,
"DP034": 12687,
"DP035": 12688,
"DP036": 12689,
"DP036A": 12690,
"DP036B": 12691,
"DP038": 12692,
"DP039": 12693,
"DP04": 12694,
"DP040": 12695,
"DP040K": 12696,
"DP041": 12697,
"DP042": 12698,
"DP043": 12699,
"DP044": 12700,
"DP045": 12701,
"DP046": 12702,
"DP048": 12703,
"DP049": 12704,
"DP05": 12705,
"DP050": 12706,
"DP051": 12707,
"DP052": 12708,
"DP059": 12709,
"DP07": 12710,
"DP070": 12711,
"DP071": 12712,
"DP071A": 12713,
"DP071B": 12714,
"DP072": 12715,
"DP073": 12716,
"DP08": 12717,
"DP080": 12718,
"DP081": 12719,
"DP082": 12720,
"DP10": 12721,
"DP100": 12722,
"DP100A": 12723,
"DP101": 12724,
"DP102": 12725,
"DP103": 12726,
"DP104": 12727,
"DP108": 12728,
"DP109": 12729,
"DP11": 12730,
"DP110": 12731,
"DP111": 12732,
"DP112": 12733,
"DP113": 12734,
"DP114": 12735,
"DP115": 12736,
"DP115A": 12737,
"DP115B": 12738,
"DP115C": 12739,
"DP119": 12740,
"DP12": 12741,
"DP120": 12742,
"DP121": 12743,
"DP122": 12744,
"DP123": 12745,
"DP124": 12746,
"DP128": 12747,
"DP129": 12748,
"DP13": 12749,
"DP130": 12750,
"DP131": 12751,
"DP132": 12752,
"DP133": 12753,
"DP134": 12754,
"DP138": 12755,
"DP139": 12756,
"DP14": 12757,
"DP140": 12758,
"DP141": 12759,
"DP142": 12760,
"DP143": 12761,
"DP148": 12762,
"DP149": 12763,
"DP15": 12764,
"DP150": 12765,
"DP151": 12766,
"DP152": 12767,
"DP153": 12768,
"DP153A": 12769,
"DP153B": 12770,
"DP153C": 12771,
"DP154": 12772,
"DP154A": 12773,
"DP155": 12774,
"DP156": 12775,
"DP158": 12776,
"DP158A": 12777,
"DP159": 12778,
"DP20": 12779,
"DP200": 12780,
"DP200A": 12781,
"DP200B": 12782,
"DP200C": 12783,
"DP200D": 12784,
"DP200E": 12785,
"DP201": 12786,
"DP201A": 12787,
"DP201B": 12788,
"DP201C": 12789,
"DP201D": 12790,
"DP201E": 12791,
"DP209": 12792,
"DP21": 12793,
"DP210": 12794,
"DP210A": 12795,
"DP210B": 12796,
"DP210C": 12797,
"DP210D": 12798,
"DP211": 12799,
"DP211A": 12800,
"DP211B": 12801,
"DP211C": 12802,
"DP211D": 12803,
"DP219": 12804,
"DP22": 12805,
"DP220": 12806,
"DP220A": 12807,
"DP221": 12808,
"DP228": 12809,
"DP229": 12810,
"DP23": 12811,
"DP230": 12812,
"DP231": 12813,
"DP232": 12814,
"DP233": 12815,
"DP234": 12816,
"DP235": 12817,
"DP236": 12818,
"DP236A": 12819,
"DP236B": 12820,
"DP236C": 12821,
"DP236D": 12822,
"DP238": 12823,
"DP239": 12824,
"DP24": 12825,
"DP240": 12826,
"DP241": 12827,
"DP242": 12828,
"DP243": 12829,
"DP248": 12830,
"DP249": 12831,
"DP25": 12832,
"DP250": 12833,
"DP251": 12834,
"DP252": 12835,
"DP253": 12836,
"DP258": 12837,
"DP26": 12838,
"DP260": 12839,
"DP261": 12840,
"DP268": 12841,
"DP269": 12842,
"DP27": 12843,
"DP270": 12844,
"DP271": 12845,
"DP271A": 12846,
"DP271B": 12847,
"DP278": 12848,
"DP278A": 12849,
"DP278B": 12850,
"DP279": 12851,
"DP28": 12852,
"DP280": 12853,
"DP280A": 12854,
"DP280B": 12855,
"DP281": 12856,
"DP281A": 12857,
"DP281B": 12858,
"DP281C": 12859,
"DP282": 12860,
"DP283": 12861,
"DP284": 12862,
"DP285": 12863,
"DP288": 12864,
"DP288A": 12865,
"DP288B": 12866,
"DP289": 12867,
"DP29": 12868,
"DP290": 12869,
"DP291": 12870,
"DP291A": 12871,
"DP292": 12872,
"DP293": 12873,
"DP293A": 12874,
"DP293B": 12875,
"DP294": 12876,
"DP298": 12877,
"DP299": 12878,
"DP35": 12879,
"DP350": 12880,
"DP351": 12881,
"DP352": 12882,
"DP352A": 12883,
"DP353": 12884,
"DP354": 12885,
"DP358": 12886,
"DP358A": 12887,
"DP359": 12888,
"DP36": 12889,
"DP360": 12890,
"DP361": 12891,
"DP362": 12892,
"DP363": 12893,
"DP364": 12894,
"DP365": 12895,
"DP368": 12896,
"DP369": 12897,
"DP37": 12898,
"DP370": 12899,
"DP371": 12900,
"DP371A": 12901,
"DP372": 12902,
"DP373": 12903,
"DP374": 12904,
[...]
